{
  "version": "1.0",
  "truncation": null,
  "padding": null,
  "added_tokens": [
    {
      "id": 0,
      "content": "[UNK]",
      "single_word": false,
      "lstrip": false,
      "rstrip": false,
      "normalized": false,
      "special": true
    },
    {
      "id": 1,
      "content": "[PAD]",
      "single_word": false,
      "lstrip": false,
      "rstrip": false,
      "normalized": false,
      "special": true
    },
    {
      "id": 2,
      "content": "[CLS]",
      "single_word": false,
      "lstrip": false,
      "rstrip": false,
      "normalized": false,
      "special": true
    },
    {
      "id": 3,
      "content": "[SEP]",
      "single_word": false,
      "lstrip": false,
      "rstrip": false,
      "normalized": false,
      "special": true
    },
    {
      "id": 4,
      "content": "[MASK]",
      "single_word": false,
      "lstrip": false,
      "rstrip": false,
      "normalized": false,
      "special": true
    }
  ],
  "normalizer": {
    "type": "BertNormalizer",
    "clean_text": true,
    "handle_chinese_chars": true,
    "strip_accents": null,
    "lowercase": true
  },
  "pre_tokenizer": {
    "type": "BertPreTokenizer"
  },
  "post_processor": {
    "type": "TemplateProcessing",
    "single": [
      {
        "SpecialToken": {
          "id": "[CLS]",
          "type_id": 0
        }
      },
      {
        "Sequence": {
          "id": "A",
          "type_id": 0
        }
      },
      {
        "SpecialToken": {
          "id": "[SEP]",
          "type_id": 0
        }
      }
    ],
    "pair": [
      {
        "SpecialToken": {
          "id": "[CLS]",
          "type_id": 0
        }
      },
      {
        "Sequence": {
          "id": "A",
          "type_id": 0
        }
      },
      {
        "SpecialToken": {
          "id": "[SEP]",
          "type_id": 0
        }
      },
      {
        "Sequence": {
          "id": "B",
          "type_id": 1
        }
      },
      {
        "SpecialToken": {
          "id": "[SEP]",
          "type_id": 1
        }
      }
    ],
    "special_tokens": {
      "[CLS]": {
        "id": "[CLS]",
        "ids": [
          2
        ],
        "tokens": [
          "[CLS]"
        ]
      },
      "[SEP]": {
        "id": "[SEP]",
        "ids": [
          3
        ],
        "tokens": [
          "[SEP]"
        ]
      }
    }
  },
  "decoder": null,
  "model": {
    "type": "WordPiece",
    "unk_token": "[UNK]",
    "continuing_subword_prefix": "##",
    "max_input_chars_per_word": 100,
    "vocab": {
      "[UNK]": 0,
      "[PAD]": 1,
      "[CLS]": 2,
      "[SEP]": 3,
      "[MASK]": 4,
      "!": 5,
      "\"": 6,
      "#": 7,
      "$": 8,
      "%": 9,
      "&": 10,
      "'": 11,
      "(": 12,
      ")": 13,
      "*": 14,
      "+": 15,
      ",": 16,
      "-": 17,
      ".": 18,
      "/": 19,
      "0": 20,
      "1": 21,
      "2": 22,
      "3": 23,
      "4": 24,
      "5": 25,
      "6": 26,
      "7": 27,
      "8": 28,
      "9": 29,
      ":": 30,
      ";": 31,
      "<": 32,
      "=": 33,
      ">": 34,
      "?": 35,
      "@": 36,
      "[": 37,
      "\\": 38,
      "]": 39,
      "^": 40,
      "_": 41,
      "`": 42,
      "a": 43,
      "b": 44,
      "c": 45,
      "d": 46,
      "e": 47,
      "f": 48,
      "g": 49,
      "h": 50,
      "i": 51,
      "j": 52,
      "k": 53,
      "l": 54,
      "m": 55,
      "n": 56,
      "o": 57,
      "p": 58,
      "q": 59,
      "r": 60,
      "s": 61,
      "t": 62,
      "u": 63,
      "v": 64,
      "w": 65,
      "x": 66,
      "y": 67,
      "z": 68,
      "|": 69,
      "}": 70,
      "~": 71,
      "¡": 72,
      "¢": 73,
      "£": 74,
      "¥": 75,
      "§": 76,
      "°": 77,
      "±": 78,
      "²": 79,
      "³": 80,
      "´": 81,
      "µ": 82,
      "·": 83,
      "º": 84,
      "½": 85,
      "¿": 86,
      "×": 87,
      "ß": 88,
      "æ": 89,
      "ð": 90,
      "ø": 91,
      "þ": 92,
      "đ": 93,
      "ħ": 94,
      "ı": 95,
      "ł": 96,
      "œ": 97,
      "ɐ": 98,
      "ɑ": 99,
      "ɒ": 100,
      "ɔ": 101,
      "ə": 102,
      "ɛ": 103,
      "ɜ": 104,
      "ɡ": 105,
      "ɢ": 106,
      "ɪ": 107,
      "ɫ": 108,
      "ɳ": 109,
      "ɽ": 110,
      "ɾ": 111,
      "ʁ": 112,
      "ʃ": 113,
      "ʊ": 114,
      "ʋ": 115,
      "ʒ": 116,
      "ʔ": 117,
      "ʕ": 118,
      "ʲ": 119,
      "ʻ": 120,
      "ʼ": 121,
      "ʾ": 122,
      "ʿ": 123,
      "ˈ": 124,
      "ˌ": 125,
      "ː": 126,
      "α": 127,
      "β": 128,
      "γ": 129,
      "δ": 130,
      "ε": 131,
      "η": 132,
      "θ": 133,
      "ι": 134,
      "κ": 135,
      "λ": 136,
      "μ": 137,
      "ν": 138,
      "ξ": 139,
      "ο": 140,
      "π": 141,
      "ρ": 142,
      "ς": 143,
      "σ": 144,
      "τ": 145,
      "υ": 146,
      "φ": 147,
      "χ": 148,
      "ψ": 149,
      "ω": 150,
      "а": 151,
      "б": 152,
      "в": 153,
      "г": 154,
      "д": 155,
      "е": 156,
      "ж": 157,
      "з": 158,
      "и": 159,
      "к": 160,
      "л": 161,
      "м": 162,
      "н": 163,
      "о": 164,
      "п": 165,
      "р": 166,
      "с": 167,
      "т": 168,
      "у": 169,
      "х": 170,
      "ц": 171,
      "ш": 172,
      "ъ": 173,
      "ы": 174,
      "ь": 175,
      "ю": 176,
      "я": 177,
      "є": 178,
      "א": 179,
      "ב": 180,
      "ג": 181,
      "ה": 182,
      "ו": 183,
      "ז": 184,
      "ח": 185,
      "י": 186,
      "ל": 187,
      "ם": 188,
      "מ": 189,
      "ן": 190,
      "נ": 191,
      "ס": 192,
      "ף": 193,
      "פ": 194,
      "צ": 195,
      "ר": 196,
      "ש": 197,
      "ת": 198,
      "ء": 199,
      "ا": 200,
      "ب": 201,
      "ة": 202,
      "ت": 203,
      "ث": 204,
      "ج": 205,
      "ح": 206,
      "خ": 207,
      "د": 208,
      "ذ": 209,
      "ر": 210,
      "س": 211,
      "ش": 212,
      "ص": 213,
      "ع": 214,
      "ف": 215,
      "ق": 216,
      "ك": 217,
      "ل": 218,
      "م": 219,
      "ن": 220,
      "ه": 221,
      "و": 222,
      "ي": 223,
      "ܐ": 224,
      "ܕ": 225,
      "ܗ": 226,
      "ܝ": 227,
      "ܠ": 228,
      "ܢ": 229,
      "ܬ": 230,
      "अ": 231,
      "ई": 232,
      "क": 233,
      "ग": 234,
      "ण": 235,
      "त": 236,
      "द": 237,
      "न": 238,
      "प": 239,
      "ब": 240,
      "म": 241,
      "य": 242,
      "र": 243,
      "ल": 244,
      "व": 245,
      "स": 246,
      "ह": 247,
      "ा": 248,
      "ि": 249,
      "আ": 250,
      "ল": 251,
      "হ": 252,
      "া": 253,
      "ਅ": 254,
      "ਲ": 255,
      "ਹ": 256,
      "ਾ": 257,
      "അ": 258,
      "ള": 259,
      "ഹ": 260,
      "ാ": 261,
      "ก": 262,
      "ค": 263,
      "ง": 264,
      "ช": 265,
      "ซ": 266,
      "ญ": 267,
      "ฐ": 268,
      "ณ": 269,
      "ด": 270,
      "ต": 271,
      "น": 272,
      "บ": 273,
      "ป": 274,
      "พ": 275,
      "ภ": 276,
      "ม": 277,
      "ย": 278,
      "ร": 279,
      "ล": 280,
      "ว": 281,
      "ศ": 282,
      "ษ": 283,
      "ส": 284,
      "ห": 285,
      "อ": 286,
      "ฮ": 287,
      "ะ": 288,
      "า": 289,
      "เ": 290,
      "แ": 291,
      "ไ": 292,
      "ა": 293,
      "ბ": 294,
      "გ": 295,
      "დ": 296,
      "ე": 297,
      "ვ": 298,
      "ზ": 299,
      "თ": 300,
      "ი": 301,
      "კ": 302,
      "ლ": 303,
      "მ": 304,
      "ნ": 305,
      "ო": 306,
      "პ": 307,
      "ჟ": 308,
      "რ": 309,
      "ს": 310,
      "ტ": 311,
      "უ": 312,
      "ფ": 313,
      "ქ": 314,
      "ღ": 315,
      "ყ": 316,
      "შ": 317,
      "ჩ": 318,
      "ც": 319,
      "ძ": 320,
      "წ": 321,
      "ჭ": 322,
      "ხ": 323,
      "ჯ": 324,
      "ჰ": 325,
      "ჱ": 326,
      "ჲ": 327,
      "ჳ": 328,
      "ჴ": 329,
      "ჵ": 330,
      "ჶ": 331,
      "ჷ": 332,
      "ჸ": 333,
      "ჹ": 334,
      "ჺ": 335,
      "჻": 336,
      "ᄃ": 337,
      "ᄅ": 338,
      "ᄇ": 339,
      "ᄋ": 340,
      "ᄌ": 341,
      "ᅡ": 342,
      "ᅢ": 343,
      "ᅦ": 344,
      "ᅧ": 345,
      "ᅩ": 346,
      "ᅮ": 347,
      "ᅵ": 348,
      "ᆨ": 349,
      "ᆫ": 350,
      "ᆯ": 351,
      "ᆸ": 352,
      "ᆼ": 353,
      "ᵻ": 354,
      "‐": 355,
      "‑": 356,
      "–": 357,
      "—": 358,
      "―": 359,
      "‘": 360,
      "’": 361,
      "“": 362,
      "”": 363,
      "„": 364,
      "†": 365,
      "‡": 366,
      "•": 367,
      "…": 368,
      "′": 369,
      "″": 370,
      "⁄": 371,
      "₣": 372,
      "₤": 373,
      "€": 374,
      "₹": 375,
      "⅓": 376,
      "⅔": 377,
      "→": 378,
      "−": 379,
      "≡": 380,
      "≤": 381,
      "①": 382,
      "☉": 383,
      "☫": 384,
      "♀": 385,
      "♭": 386,
      "♯": 387,
      "⚳": 388,
      "ⴀ": 389,
      "ⴂ": 390,
      "ⴃ": 391,
      "ⴈ": 392,
      "ⴌ": 393,
      "ⴕ": 394,
      "ⴟ": 395,
      "〈": 396,
      "〉": 397,
      "〜": 398,
      "あ": 399,
      "い": 400,
      "う": 401,
      "お": 402,
      "か": 403,
      "き": 404,
      "く": 405,
      "け": 406,
      "こ": 407,
      "さ": 408,
      "し": 409,
      "す": 410,
      "せ": 411,
      "た": 412,
      "ち": 413,
      "っ": 414,
      "つ": 415,
      "と": 416,
      "な": 417,
      "に": 418,
      "の": 419,
      "は": 420,
      "ひ": 421,
      "ふ": 422,
      "ほ": 423,
      "ま": 424,
      "み": 425,
      "め": 426,
      "も": 427,
      "ゃ": 428,
      "ゆ": 429,
      "ょ": 430,
      "ら": 431,
      "り": 432,
      "る": 433,
      "れ": 434,
      "わ": 435,
      "を": 436,
      "ん": 437,
      "ァ": 438,
      "ア": 439,
      "ィ": 440,
      "イ": 441,
      "ゥ": 442,
      "ウ": 443,
      "ェ": 444,
      "エ": 445,
      "ォ": 446,
      "オ": 447,
      "カ": 448,
      "キ": 449,
      "ク": 450,
      "ケ": 451,
      "コ": 452,
      "サ": 453,
      "シ": 454,
      "ス": 455,
      "セ": 456,
      "タ": 457,
      "チ": 458,
      "ッ": 459,
      "ツ": 460,
      "テ": 461,
      "ト": 462,
      "ナ": 463,
      "ニ": 464,
      "ネ": 465,
      "ノ": 466,
      "ハ": 467,
      "フ": 468,
      "ヘ": 469,
      "マ": 470,
      "ミ": 471,
      "ム": 472,
      "モ": 473,
      "ャ": 474,
      "ュ": 475,
      "ョ": 476,
      "ラ": 477,
      "リ": 478,
      "ル": 479,
      "レ": 480,
      "ロ": 481,
      "ン": 482,
      "・": 483,
      "ー": 484,
      "一": 485,
      "七": 486,
      "下": 487,
      "世": 488,
      "丙": 489,
      "中": 490,
      "主": 491,
      "乃": 492,
      "之": 493,
      "乙": 494,
      "九": 495,
      "二": 496,
      "云": 497,
      "人": 498,
      "今": 499,
      "付": 500,
      "作": 501,
      "侗": 502,
      "依": 503,
      "信": 504,
      "傳": 505,
      "儚": 506,
      "充": 507,
      "光": 508,
      "全": 509,
      "兵": 510,
      "其": 511,
      "具": 512,
      "円": 513,
      "再": 514,
      "出": 515,
      "判": 516,
      "前": 517,
      "剛": 518,
      "劇": 519,
      "劉": 520,
      "動": 521,
      "化": 522,
      "北": 523,
      "华": 524,
      "厂": 525,
      "去": 526,
      "古": 527,
      "可": 528,
      "台": 529,
      "史": 530,
      "同": 531,
      "名": 532,
      "君": 533,
      "吳": 534,
      "周": 535,
      "命": 536,
      "和": 537,
      "咲": 538,
      "善": 539,
      "四": 540,
      "國": 541,
      "園": 542,
      "圣": 543,
      "在": 544,
      "坂": 545,
      "堤": 546,
      "場": 547,
      "塘": 548,
      "夕": 549,
      "大": 550,
      "天": 551,
      "夫": 552,
      "女": 553,
      "妙": 554,
      "姚": 555,
      "子": 556,
      "孟": 557,
      "守": 558,
      "安": 559,
      "宋": 560,
      "完": 561,
      "宗": 562,
      "宝": 563,
      "宫": 564,
      "寝": 565,
      "寺": 566,
      "小": 567,
      "少": 568,
      "尾": 569,
      "山": 570,
      "岳": 571,
      "川": 572,
      "州": 573,
      "巳": 574,
      "市": 575,
      "師": 576,
      "平": 577,
      "广": 578,
      "庆": 579,
      "府": 580,
      "座": 581,
      "廬": 582,
      "建": 583,
      "式": 584,
      "張": 585,
      "彌": 586,
      "彩": 587,
      "彼": 588,
      "後": 589,
      "御": 590,
      "德": 591,
      "思": 592,
      "愛": 593,
      "憑": 594,
      "憶": 595,
      "應": 596,
      "懷": 597,
      "战": 598,
      "戦": 599,
      "扈": 600,
      "技": 601,
      "拉": 602,
      "拳": 603,
      "挑": 604,
      "揺": 605,
      "攻": 606,
      "放": 607,
      "政": 608,
      "散": 609,
      "斯": 610,
      "方": 611,
      "日": 612,
      "旦": 613,
      "旭": 614,
      "昌": 615,
      "明": 616,
      "星": 617,
      "春": 618,
      "晋": 619,
      "景": 620,
      "曦": 621,
      "月": 622,
      "望": 623,
      "未": 624,
      "本": 625,
      "李": 626,
      "村": 627,
      "杜": 628,
      "束": 629,
      "来": 630,
      "林": 631,
      "桜": 632,
      "梶": 633,
      "棘": 634,
      "椎": 635,
      "楊": 636,
      "楚": 637,
      "榮": 638,
      "橘": 639,
      "機": 640,
      "正": 641,
      "殻": 642,
      "殿": 643,
      "母": 644,
      "水": 645,
      "汉": 646,
      "沂": 647,
      "沙": 648,
      "河": 649,
      "泗": 650,
      "波": 651,
      "泣": 652,
      "洪": 653,
      "淹": 654,
      "清": 655,
      "湯": 656,
      "漢": 657,
      "澄": 658,
      "澤": 659,
      "火": 660,
      "灯": 661,
      "灵": 662,
      "灼": 663,
      "焼": 664,
      "熱": 665,
      "物": 666,
      "狐": 667,
      "狸": 668,
      "玄": 669,
      "王": 670,
      "玩": 671,
      "珂": 672,
      "珙": 673,
      "球": 674,
      "理": 675,
      "琦": 676,
      "琪": 677,
      "瓊": 678,
      "生": 679,
      "田": 680,
      "畢": 681,
      "番": 682,
      "瘡": 683,
      "白": 684,
      "皮": 685,
      "真": 686,
      "砲": 687,
      "礮": 688,
      "祈": 689,
      "神": 690,
      "祠": 691,
      "秋": 692,
      "空": 693,
      "立": 694,
      "精": 695,
      "約": 696,
      "絵": 697,
      "織": 698,
      "義": 699,
      "翠": 700,
      "者": 701,
      "耕": 702,
      "肖": 703,
      "胡": 704,
      "膀": 705,
      "臂": 706,
      "興": 707,
      "良": 708,
      "花": 709,
      "芳": 710,
      "芽": 711,
      "若": 712,
      "英": 713,
      "藕": 714,
      "藥": 715,
      "蘄": 716,
      "蘇": 717,
      "行": 718,
      "裁": 719,
      "規": 720,
      "覺": 721,
      "观": 722,
      "解": 723,
      "記": 724,
      "誓": 725,
      "誡": 726,
      "誰": 727,
      "謎": 728,
      "许": 729,
      "谭": 730,
      "豪": 731,
      "豫": 732,
      "費": 733,
      "贵": 734,
      "赤": 735,
      "趙": 736,
      "足": 737,
      "跡": 738,
      "転": 739,
      "辛": 740,
      "逆": 741,
      "遇": 742,
      "運": 743,
      "過": 744,
      "遠": 745,
      "選": 746,
      "邦": 747,
      "邱": 748,
      "部": 749,
      "郭": 750,
      "都": 751,
      "酈": 752,
      "里": 753,
      "野": 754,
      "金": 755,
      "銃": 756,
      "鋼": 757,
      "錄": 758,
      "錡": 759,
      "鍵": 760,
      "鐵": 761,
      "钱": 762,
      "铁": 763,
      "關": 764,
      "防": 765,
      "阿": 766,
      "陈": 767,
      "陳": 768,
      "陽": 769,
      "隊": 770,
      "階": 771,
      "集": 772,
      "雪": 773,
      "雲": 774,
      "霖": 775,
      "霹": 776,
      "靂": 777,
      "韓": 778,
      "願": 779,
      "顯": 780,
      "颜": 781,
      "马": 782,
      "高": 783,
      "龍": 784,
      "ﷲ": 785,
      "ﻋ": 786,
      "／": 787,
      "３": 788,
      "～": 789,
      "##o": 790,
      "##l": 791,
      "##y": 792,
      "##a": 793,
      "##n": 794,
      "##d": 795,
      "##r": 796,
      "##i": 797,
      "##w": 798,
      "##s": 799,
      "##e": 800,
      "##t": 801,
      "##u": 802,
      "##b": 803,
      "##c": 804,
      "##2": 805,
      "##9": 806,
      "##g": 807,
      "##h": 808,
      "##m": 809,
      "##v": 810,
      "##k": 811,
      "##p": 812,
      "##f": 813,
      "##x": 814,
      "##j": 815,
      "##z": 816,
      "##4": 817,
      "##1": 818,
      "##5": 819,
      "##7": 820,
      "##0": 821,
      "##6": 822,
      "##3": 823,
      "##q": 824,
      "##8": 825,
      "##た": 826,
      "##り": 827,
      "##の": 828,
      "##ˈ": 829,
      "##л": 830,
      "##а": 831,
      "##х": 832,
      "##ト": 833,
      "##ッ": 834,
      "##フ": 835,
      "##ذ": 836,
      "##ي": 837,
      "##ن": 838,
      "##ة": 839,
      "##か": 840,
      "##な": 841,
      "##რ": 842,
      "##გ": 843,
      "##ვ": 844,
      "##ა": 845,
      "##ლ": 846,
      "##ი": 847,
      "##ø": 848,
      "##ɑ": 849,
      "##α": 850,
      "##ν": 851,
      "##χ": 852,
      "##ε": 853,
      "##ρ": 854,
      "##η": 855,
      "##ς": 856,
      "##ل": 857,
      "##ف": 858,
      "##ر": 859,
      "##س": 860,
      "##ا": 861,
      "##र": 862,
      "##ι": 863,
      "##σ": 864,
      "##τ": 865,
      "##ο": 866,
      "##υ": 867,
      "##ł": 868,
      "##ク": 869,
      "##サ": 870,
      "##ス": 871,
      "##き": 872,
      "##ɪ": 873,
      "##ə": 874,
      "##ს": 875,
      "##ტ": 876,
      "##ე": 877,
      "##ხ": 878,
      "##ラ": 879,
      "##ー": 880,
      "##æ": 881,
      "##ᅦ": 882,
      "##ᄃ": 883,
      "##ᅩ": 884,
      "##ᆨ": 885,
      "##ᄅ": 886,
      "##ᅵ": 887,
      "##ᆸ": 888,
      "##ᄇ": 889,
      "##ᅧ": 890,
      "##ᆼ": 891,
      "##ᄋ": 892,
      "##ᆫ": 893,
      "##ᅢ": 894,
      "##ʻ": 895,
      "##ア": 896,
      "##ː": 897,
      "##ش": 898,
      "##خ": 899,
      "##ɜ": 900,
      "##י": 901,
      "##ס": 902,
      "##ל": 903,
      "##γ": 904,
      "##ा": 905,
      "##ण": 906,
      "##ई": 907,
      "##ਲ": 908,
      "##ਹ": 909,
      "##ツ": 910,
      "##ネ": 911,
      "##є": 912,
      "##λ": 913,
      "##μ": 914,
      "##π": 915,
      "##ß": 916,
      "##ল": 917,
      "##ω": 918,
      "##ܠ": 919,
      "##ܗ": 920,
      "##ܐ": 921,
      "##ウ": 922,
      "##ァ": 923,
      "##ル": 924,
      "##キ": 925,
      "##ュ": 926,
      "##リ": 927,
      "##פ": 928,
      "##ה": 929,
      "##ォ": 930,
      "##テ": 931,
      "##द": 932,
      "##đ": 933,
      "##უ": 934,
      "##ʔ": 935,
      "##ャ": 936,
      "##モ": 937,
      "##ン": 938,
      "##ه": 939,
      "##β": 940,
      "##ʁ": 941,
      "##ჲ": 942,
      "##ɒ": 943,
      "##ि": 944,
      "##ら": 945,
      "##イ": 946,
      "##ן": 947,
      "##მ": 948,
      "##წ": 949,
      "##ფ": 950,
      "##ɛ": 951,
      "##ʊ": 952,
      "##δ": 953,
      "##о": 954,
      "##ю": 955,
      "##з": 956,
      "##ع": 957,
      "##ب": 958,
      "##د": 959,
      "##っ": 960,
      "##こ": 961,
      "##ん": 962,
      "##お": 963,
      "##ı": 964,
      "##ʃ": 965,
      "##つ": 966,
      "##ð": 967,
      "##م": 968,
      "##ت": 969,
      "##œ": 970,
      "##к": 971,
      "##р": 972,
      "##и": 973,
      "##н": 974,
      "##ב": 975,
      "##ת": 976,
      "##א": 977,
      "##う": 978,
      "##ค": 979,
      "##ร": 980,
      "##ว": 981,
      "##ต": 982,
      "##ო": 983,
      "##თ": 984,
      "##κ": 985,
      "##ξ": 986,
      "##ق": 987,
      "##و": 988,
      "##ɔ": 989,
      "##い": 990,
      "##ו": 991,
      "##ף": 992,
      "##ɡ": 993,
      "##ᵻ": 994,
      "##व": 995,
      "##ჳ": 996,
      "##ʿ": 997,
      "##タ": 998,
      "##с": 999,
      "##ы": 1000,
      "##ɫ": 1001,
      "##ま": 1002,
      "##る": 1003,
      "##ल": 1004,
      "##ʒ": 1005,
      "##と": 1006,
      "##ィ": 1007,
      "##ロ": 1008,
      "##ქ": 1009,
      "##ნ": 1010,
      "##დ": 1011,
      "##п": 1012,
      "##г": 1013,
      "##נ": 1014,
      "##ɽ": 1015,
      "##д": 1016,
      "##е": 1017,
      "##ള": 1018,
      "##в": 1019,
      "##т": 1020,
      "##я": 1021,
      "##ם": 1022,
      "##シ": 1023,
      "##ョ": 1024,
      "##ह": 1025,
      "##ء": 1026,
      "##は": 1027,
      "##め": 1028,
      "##º": 1029,
      "##し": 1030,
      "##す": 1031,
      "##ひ": 1032,
      "##ɾ": 1033,
      "##ʲ": 1034,
      "##ك": 1035,
      "##ム": 1036,
      "##チ": 1037,
      "##ェ": 1038,
      "##ซ": 1039,
      "##ш": 1040,
      "##く": 1041,
      "##あ": 1042,
      "##ノ": 1043,
      "##แ": 1044,
      "##ก": 1045,
      "##３": 1046,
      "##ニ": 1047,
      "##м": 1048,
      "##ล": 1049,
      "##ง": 1050,
      "##พ": 1051,
      "##ไ": 1052,
      "##ช": 1053,
      "##ย": 1054,
      "##า": 1055,
      "##ゥ": 1056,
      "##ナ": 1057,
      "##ჱ": 1058,
      "##ɳ": 1059,
      "##ミ": 1060,
      "##ъ": 1061,
      "##ж": 1062,
      "##セ": 1063,
      "##オ": 1064,
      "##ป": 1065,
      "##ც": 1066,
      "##у": 1067,
      "##ち": 1068,
      "##ゃ": 1069,
      "##θ": 1070,
      "##ث": 1071,
      "##カ": 1072,
      "##レ": 1073,
      "##れ": 1074,
      "##ᅮ": 1075,
      "##ะ": 1076,
      "##อ": 1077,
      "##น": 1078,
      "##न": 1079,
      "##ᅡ": 1080,
      "##ᆯ": 1081,
      "##ゆ": 1082,
      "##ר": 1083,
      "##ਾ": 1084,
      "##เ": 1085,
      "##क": 1086,
      "##ാ": 1087,
      "##ഹ": 1088,
      "##ग": 1089,
      "##ˌ": 1090,
      "##ש": 1091,
      "##מ": 1092,
      "##צ": 1093,
      "##ц": 1094,
      "##ь": 1095,
      "##せ": 1096,
      "##わ": 1097,
      "##み": 1098,
      "##া": 1099,
      "##হ": 1100,
      "##ณ": 1101,
      "##ม": 1102,
      "##マ": 1103,
      "##を": 1104,
      "##ょ": 1105,
      "##に": 1106,
      "##ح": 1107,
      "##ψ": 1108,
      "##ฮ": 1109,
      "##エ": 1110,
      "##स": 1111,
      "##ハ": 1112,
      "##ɐ": 1113,
      "##ษ": 1114,
      "##ฐ": 1115,
      "##も": 1116,
      "##ܕ": 1117,
      "##ܝ": 1118,
      "##ܢ": 1119,
      "##ܬ": 1120,
      "##ص": 1121,
      "##ภ": 1122,
      "##ด": 1123,
      "th": 1124,
      "the": 1125,
      "##er": 1126,
      "##in": 1127,
      "##ed": 1128,
      "##on": 1129,
      "##nd": 1130,
      "##es": 1131,
      "##at": 1132,
      "##or": 1133,
      "##en": 1134,
      "##ar": 1135,
      "in": 1136,
      "of": 1137,
      "##an": 1138,
      "##al": 1139,
      "##it": 1140,
      "##ing": 1141,
      "and": 1142,
      "##is": 1143,
      "##as": 1144,
      "to": 1145,
      "##ic": 1146,
      "##ou": 1147,
      "##ion": 1148,
      "##re": 1149,
      "##om": 1150,
      "##el": 1151,
      "##il": 1152,
      "##ec": 1153,
      "##ent": 1154,
      "##th": 1155,
      "##st": 1156,
      "##am": 1157,
      "##ur": 1158,
      "##ad": 1159,
      "##ac": 1160,
      "on": 1161,
      "##le": 1162,
      "##ro": 1163,
      "was": 1164,
      "st": 1165,
      "##et": 1166,
      "for": 1167,
      "##ly": 1168,
      "##ol": 1169,
      "##ir": 1170,
      "as": 1171,
      "wh": 1172,
      "##iv": 1173,
      "##ter": 1174,
      "##id": 1175,
      "##ig": 1176,
      "re": 1177,
      "##ith": 1178,
      "##ow": 1179,
      "##ay": 1180,
      "be": 1181,
      "al": 1182,
      "##im": 1183,
      "##ch": 1184,
      "with": 1185,
      "##ation": 1186,
      "that": 1187,
      "is": 1188,
      "it": 1189,
      "##ut": 1190,
      "##ers": 1191,
      "##em": 1192,
      "##ot": 1193,
      "con": 1194,
      "fr": 1195,
      "by": 1196,
      "an": 1197,
      "##us": 1198,
      "at": 1199,
      "ch": 1200,
      "##ul": 1201,
      "##ce": 1202,
      "he": 1203,
      "##ver": 1204,
      "##os": 1205,
      "##and": 1206,
      "##est": 1207,
      "sh": 1208,
      "##ag": 1209,
      "##ain": 1210,
      "19": 1211,
      "##um": 1212,
      "com": 1213,
      "##av": 1214,
      "his": 1215,
      "##ere": 1216,
      "##od": 1217,
      "from": 1218,
      "##ess": 1219,
      "pro": 1220,
      "su": 1221,
      "##op": 1222,
      "se": 1223,
      "##ct": 1224,
      "de": 1225,
      "##ri": 1226,
      "##ist": 1227,
      "##ap": 1228,
      "20": 1229,
      "##ies": 1230,
      "##un": 1231,
      "##ect": 1232,
      "ne": 1233,
      "##if": 1234,
      "##igh": 1235,
      "or": 1236,
      "##ill": 1237,
      "were": 1238,
      "pl": 1239,
      "##ab": 1240,
      "##ak": 1241,
      "ar": 1242,
      "##all": 1243,
      "##ld": 1244,
      "##ich": 1245,
      "##ard": 1246,
      "##ate": 1247,
      "##ong": 1248,
      "##ort": 1249,
      "##oc": 1250,
      "ex": 1251,
      "##art": 1252,
      "un": 1253,
      "##ish": 1254,
      "##ther": 1255,
      "##ant": 1256,
      "##pp": 1257,
      "le": 1258,
      "##ber": 1259,
      "##ud": 1260,
      "##gh": 1261,
      "pr": 1262,
      "tr": 1263,
      "sp": 1264,
      "##ity": 1265,
      "##ated": 1266,
      "##se": 1267,
      "##ame": 1268,
      "are": 1269,
      "##ive": 1270,
      "en": 1271,
      "##ie": 1272,
      "##ack": 1273,
      "##ore": 1274,
      "had": 1275,
      "##ear": 1276,
      "##ough": 1277,
      "##ov": 1278,
      "which": 1279,
      "##ge": 1280,
      "##ell": 1281,
      "##ast": 1282,
      "##pt": 1283,
      "not": 1284,
      "##ian": 1285,
      "##ound": 1286,
      "rec": 1287,
      "##our": 1288,
      "##ip": 1289,
      "##ment": 1290,
      "##ord": 1291,
      "##ine": 1292,
      "##ally": 1293,
      "af": 1294,
      "##rit": 1295,
      "##ia": 1296,
      "##ost": 1297,
      "comp": 1298,
      "##ight": 1299,
      "her": 1300,
      "##oun": 1301,
      "##ave": 1302,
      "##ue": 1303,
      "##ary": 1304,
      "cl": 1305,
      "fir": 1306,
      "##cc": 1307,
      "##ust": 1308,
      "this": 1309,
      "ad": 1310,
      "200": 1311,
      "##og": 1312,
      "but": 1313,
      "##ous": 1314,
      "wor": 1315,
      "##te": 1316,
      "tw": 1317,
      "their": 1318,
      "##ach": 1319,
      "inc": 1320,
      "first": 1321,
      "bo": 1322,
      "ab": 1323,
      "sc": 1324,
      "##ions": 1325,
      "cont": 1326,
      "its": 1327,
      "##so": 1328,
      "gr": 1329,
      "man": 1330,
      "##ure": 1331,
      "##ical": 1332,
      "##ath": 1333,
      "##ial": 1334,
      "##qu": 1335,
      "after": 1336,
      "##ould": 1337,
      "one": 1338,
      "##ome": 1339,
      "all": 1340,
      "##ra": 1341,
      "they": 1342,
      "am": 1343,
      "int": 1344,
      "per": 1345,
      "res": 1346,
      "also": 1347,
      "##ub": 1348,
      "##ok": 1349,
      "rel": 1350,
      "##per": 1351,
      "##ide": 1352,
      "##out": 1353,
      "##ater": 1354,
      "ro": 1355,
      "mar": 1356,
      "tim": 1357,
      "##ass": 1358,
      "##ign": 1359,
      "comm": 1360,
      "us": 1361,
      "##ire": 1362,
      "new": 1363,
      "fe": 1364,
      "##age": 1365,
      "two": 1366,
      "##00": 1367,
      "##oll": 1368,
      "##ru": 1369,
      "have": 1370,
      "##orm": 1371,
      "des": 1372,
      "##own": 1373,
      "##ence": 1374,
      "has": 1375,
      "ser": 1376,
      "##ree": 1377,
      "app": 1378,
      "##ond": 1379,
      "play": 1380,
      "ag": 1381,
      "dis": 1382,
      "bec": 1383,
      "part": 1384,
      "been": 1385,
      "who": 1386,
      "go": 1387,
      "##ans": 1388,
      "18": 1389,
      "##ry": 1390,
      "##land": 1391,
      "car": 1392,
      "im": 1393,
      "##uring": 1394,
      "year": 1395,
      "##pl": 1396,
      "##ile": 1397,
      "##ted": 1398,
      "##ely": 1399,
      "##ory": 1400,
      "##du": 1401,
      "##ition": 1402,
      "she": 1403,
      "##ance": 1404,
      "me": 1405,
      "##ations": 1406,
      "ev": 1407,
      "##ff": 1408,
      "##iz": 1409,
      "##ang": 1410,
      "##ade": 1411,
      "br": 1412,
      "##lud": 1413,
      "we": 1414,
      "##wn": 1415,
      "off": 1416,
      "fin": 1417,
      "over": 1418,
      "201": 1419,
      "##ib": 1420,
      "co": 1421,
      "##ens": 1422,
      "other": 1423,
      "##ult": 1424,
      "pre": 1425,
      "##ric": 1426,
      "up": 1427,
      "out": 1428,
      "##ite": 1429,
      "##act": 1430,
      "fl": 1431,
      "can": 1432,
      "inter": 1433,
      "ind": 1434,
      "##pr": 1435,
      "cent": 1436,
      "nor": 1437,
      "during": 1438,
      "dec": 1439,
      "##urn": 1440,
      "when": 1441,
      "##ke": 1442,
      "includ": 1443,
      "##ount": 1444,
      "time": 1445,
      "ear": 1446,
      "##ice": 1447,
      "##ace": 1448,
      "##nder": 1449,
      "##ember": 1450,
      "song": 1451,
      "po": 1452,
      "##ents": 1453,
      "##ks": 1454,
      "##one": 1455,
      "##we": 1456,
      "att": 1457,
      "sec": 1458,
      "##ail": 1459,
      "##ced": 1460,
      "into": 1461,
      "##ose": 1462,
      "bl": 1463,
      "more": 1464,
      "te": 1465,
      "##ward": 1466,
      "form": 1467,
      "##ied": 1468,
      "act": 1469,
      "##amp": 1470,
      "sou": 1471,
      "would": 1472,
      "##ason": 1473,
      "##port": 1474,
      "par": 1475,
      "##man": 1476,
      "char": 1477,
      "##able": 1478,
      "##ings": 1479,
      "##ces": 1480,
      "##ited": 1481,
      "him": 1482,
      "jo": 1483,
      "##ase": 1484,
      "most": 1485,
      "##rib": 1486,
      "##ased": 1487,
      "mus": 1488,
      "bet": 1489,
      "##ix": 1490,
      "no": 1491,
      "kn": 1492,
      "##ild": 1493,
      "game": 1494,
      "##ates": 1495,
      "acc": 1496,
      "high": 1497,
      "##ious": 1498,
      "##old": 1499,
      "some": 1500,
      "##les": 1501,
      "##als": 1502,
      "cons": 1503,
      "rem": 1504,
      "ass": 1505,
      "##way": 1506,
      "while": 1507,
      "##gr": 1508,
      "them": 1509,
      "##ors": 1510,
      "war": 1511,
      "may": 1512,
      "##iss": 1513,
      "##ake": 1514,
      "thr": 1515,
      "##ph": 1516,
      "reg": 1517,
      "fil": 1518,
      "##ts": 1519,
      "only": 1520,
      "##lish": 1521,
      "##vel": 1522,
      "there": 1523,
      "##form": 1524,
      "gen": 1525,
      "how": 1526,
      "##fer": 1527,
      "record": 1528,
      "eng": 1529,
      "##gan": 1530,
      "under": 1531,
      "pe": 1532,
      "##aw": 1533,
      "##aus": 1534,
      "##ood": 1535,
      "three": 1536,
      "later": 1537,
      "##ved": 1538,
      "min": 1539,
      "##eld": 1540,
      "##ick": 1541,
      "about": 1542,
      "north": 1543,
      "film": 1544,
      "el": 1545,
      "so": 1546,
      "em": 1547,
      "##reat": 1548,
      "through": 1549,
      "##ollow": 1550,
      "season": 1551,
      "work": 1552,
      "##ction": 1553,
      "##ween": 1554,
      "between": 1555,
      "199": 1556,
      "li": 1557,
      "again": 1558,
      "##att": 1559,
      "bu": 1560,
      "mon": 1561,
      "follow": 1562,
      "ac": 1563,
      "qu": 1564,
      "##ey": 1565,
      "than": 1566,
      "ma": 1567,
      "sy": 1568,
      "end": 1569,
      "produ": 1570,
      "##ug": 1571,
      "writ": 1572,
      "##ered": 1573,
      "##ular": 1574,
      "##ational": 1575,
      "##ock": 1576,
      "day": 1577,
      "rev": 1578,
      "win": 1579,
      "##ral": 1580,
      "##ict": 1581,
      "##ters": 1582,
      "num": 1583,
      "##hn": 1584,
      "spec": 1585,
      "##ons": 1586,
      "col": 1587,
      "##ft": 1588,
      "pos": 1589,
      "sub": 1590,
      "rele": 1591,
      "lar": 1592,
      "##iew": 1593,
      "ret": 1594,
      "south": 1595,
      "##ision": 1596,
      "def": 1597,
      "second": 1598,
      "##fore": 1599,
      "##ames": 1600,
      "do": 1601,
      "##hip": 1602,
      "mov": 1603,
      "##eric": 1604,
      "##olog": 1605,
      "bro": 1606,
      "alb": 1607,
      "gu": 1608,
      "##orn": 1609,
      "sch": 1610,
      "four": 1611,
      "where": 1612,
      "ph": 1613,
      "pres": 1614,
      "pub": 1615,
      "made": 1616,
      "##ury": 1617,
      "sa": 1618,
      "cap": 1619,
      "city": 1620,
      "##end": 1621,
      "world": 1622,
      "americ": 1623,
      "dr": 1624,
      "##ating": 1625,
      "such": 1626,
      "##ery": 1627,
      "album": 1628,
      "air": 1629,
      "before": 1630,
      "sur": 1631,
      "##lic": 1632,
      "##ived": 1633,
      "##ific": 1634,
      "str": 1635,
      "##ual": 1636,
      "ep": 1637,
      "call": 1638,
      "used": 1639,
      "##ss": 1640,
      "##tern": 1641,
      "series": 1642,
      "##ever": 1643,
      "##ily": 1644,
      "sever": 1645,
      "000": 1646,
      "pol": 1647,
      "##ics": 1648,
      "supp": 1649,
      "gener": 1650,
      "sing": 1651,
      "##ane": 1652,
      "pop": 1653,
      "being": 1654,
      "years": 1655,
      "both": 1656,
      "many": 1657,
      "found": 1658,
      "sm": 1659,
      "these": 1660,
      "op": 1661,
      "loc": 1662,
      "##ning": 1663,
      "set": 1664,
      "##urch": 1665,
      "hist": 1666,
      "##red": 1667,
      "10": 1668,
      "sim": 1669,
      "stud": 1670,
      "back": 1671,
      "##ected": 1672,
      "trans": 1673,
      "##io": 1674,
      "count": 1675,
      "however": 1676,
      "##ife": 1677,
      "add": 1678,
      "##ird": 1679,
      "##int": 1680,
      "dire": 1681,
      "will": 1682,
      "div": 1683,
      "long": 1684,
      "well": 1685,
      "star": 1686,
      "rece": 1687,
      "##ained": 1688,
      "12": 1689,
      "##ten": 1690,
      "number": 1691,
      "##ised": 1692,
      "##air": 1693,
      "##ale": 1694,
      "##ities": 1695,
      "##velop": 1696,
      "bel": 1697,
      "##igin": 1698,
      "then": 1699,
      "ter": 1700,
      "##ause": 1701,
      "cro": 1702,
      "##ron": 1703,
      "##led": 1704,
      "##ode": 1705,
      "arm": 1706,
      "batt": 1707,
      "##other": 1708,
      "##ier": 1709,
      "art": 1710,
      "origin": 1711,
      "desc": 1712,
      "##ines": 1713,
      "inv": 1714,
      "appear": 1715,
      "early": 1716,
      "music": 1717,
      "##oy": 1718,
      "##its": 1719,
      "##ement": 1720,
      "mill": 1721,
      "##ise": 1722,
      "state": 1723,
      "epis": 1724,
      "##ince": 1725,
      "brit": 1726,
      "charac": 1727,
      "##atch": 1728,
      "several": 1729,
      "##ep": 1730,
      "##ank": 1731,
      "##ton": 1732,
      "perform": 1733,
      "main": 1734,
      "16": 1735,
      "including": 1736,
      "against": 1737,
      "inst": 1738,
      "##iver": 1739,
      "##ve": 1740,
      "##ection": 1741,
      "develop": 1742,
      "ob": 1743,
      "known": 1744,
      "##oup": 1745,
      "port": 1746,
      "##ann": 1747,
      "became": 1748,
      "team": 1749,
      "inf": 1750,
      "##son": 1751,
      "met": 1752,
      "sl": 1753,
      "cre": 1754,
      "##ield": 1755,
      "nov": 1756,
      "crit": 1757,
      "##ures": 1758,
      "direct": 1759,
      "oper": 1760,
      "##iet": 1761,
      "198": 1762,
      "mil": 1763,
      "est": 1764,
      "##ert": 1765,
      "show": 1766,
      "united": 1767,
      "conc": 1768,
      "##ful": 1769,
      "##rop": 1770,
      "##ower": 1771,
      "##are": 1772,
      "const": 1773,
      "##uc": 1774,
      "##ern": 1775,
      "##though": 1776,
      "although": 1777,
      "15": 1778,
      "cr": 1779,
      "century": 1780,
      "john": 1781,
      "old": 1782,
      "11": 1783,
      "##yl": 1784,
      "dist": 1785,
      "dep": 1786,
      "lead": 1787,
      "land": 1788,
      "##ool": 1789,
      "17": 1790,
      "##ins": 1791,
      "##any": 1792,
      "##els": 1793,
      "##ork": 1794,
      "following": 1795,
      "bar": 1796,
      "near": 1797,
      "##up": 1798,
      "##0s": 1799,
      "sign": 1800,
      "##vern": 1801,
      "##ative": 1802,
      "##til": 1803,
      "down": 1804,
      "though": 1805,
      "contin": 1806,
      "##uch": 1807,
      "run": 1808,
      "##sp": 1809,
      "##ley": 1810,
      "##elf": 1811,
      "194": 1812,
      "like": 1813,
      "##ather": 1814,
      "comple": 1815,
      "##ah": 1816,
      "##aph": 1817,
      "church": 1818,
      "dif": 1819,
      "##der": 1820,
      "var": 1821,
      "ste": 1822,
      "##ject": 1823,
      "##iam": 1824,
      "disc": 1825,
      "open": 1826,
      "##az": 1827,
      "##ually": 1828,
      "ed": 1829,
      "began": 1830,
      "196": 1831,
      "along": 1832,
      "lo": 1833,
      "govern": 1834,
      "##ized": 1835,
      "fam": 1836,
      "197": 1837,
      "because": 1838,
      "##emb": 1839,
      "##ains": 1840,
      "prov": 1841,
      "##row": 1842,
      "could": 1843,
      "describ": 1844,
      "did": 1845,
      "##ession": 1846,
      "six": 1847,
      "red": 1848,
      "ever": 1849,
      "##une": 1850,
      "called": 1851,
      "peop": 1852,
      "episode": 1853,
      "ann": 1854,
      "pers": 1855,
      "##yp": 1856,
      "king": 1857,
      "##ued": 1858,
      "##au": 1859,
      "##ope": 1860,
      "dam": 1861,
      "ship": 1862,
      "hel": 1863,
      "##aking": 1864,
      "##enn": 1865,
      "until": 1866,
      "said": 1867,
      "##ined": 1868,
      "feat": 1869,
      "area": 1870,
      "##ivers": 1871,
      "ger": 1872,
      "##ments": 1873,
      "american": 1874,
      "states": 1875,
      "resp": 1876,
      "prev": 1877,
      "design": 1878,
      "adv": 1879,
      "west": 1880,
      "##eer": 1881,
      "##itt": 1882,
      "exp": 1883,
      "group": 1884,
      "people": 1885,
      "##lished": 1886,
      "aust": 1887,
      "start": 1888,
      "##ium": 1889,
      "##ove": 1890,
      "##gest": 1891,
      "##rol": 1892,
      "##ull": 1893,
      "you": 1894,
      "return": 1895,
      "maj": 1896,
      "##ured": 1897,
      "##ruct": 1898,
      "since": 1899,
      "chr": 1900,
      "head": 1901,
      "##amed": 1902,
      "mod": 1903,
      "any": 1904,
      "british": 1905,
      "pass": 1906,
      "##ccess": 1907,
      "##ind": 1908,
      "each": 1909,
      "national": 1910,
      "##eng": 1911,
      "##ange": 1912,
      "same": 1913,
      "##cept": 1914,
      "released": 1915,
      "offic": 1916,
      "##ty": 1917,
      "##ont": 1918,
      "##ided": 1919,
      "##oman": 1920,
      "own": 1921,
      "##ists": 1922,
      "##oot": 1923,
      "##ially": 1924,
      "##thern": 1925,
      "occ": 1926,
      "##ism": 1927,
      "around": 1928,
      "book": 1929,
      "##tend": 1930,
      "##ele": 1931,
      "ju": 1932,
      "aug": 1933,
      "med": 1934,
      "wee": 1935,
      "km": 1936,
      "million": 1937,
      "life": 1938,
      "use": 1939,
      "major": 1940,
      "##ible": 1941,
      "##osed": 1942,
      "13": 1943,
      "##ouse": 1944,
      "five": 1945,
      "id": 1946,
      "mag": 1947,
      "eff": 1948,
      "camp": 1949,
      "road": 1950,
      "august": 1951,
      "##res": 1952,
      "best": 1953,
      "miss": 1954,
      "##ently": 1955,
      "gre": 1956,
      "##ys": 1957,
      "small": 1958,
      "support": 1959,
      "##ash": 1960,
      "command": 1961,
      "serv": 1962,
      "town": 1963,
      "school": 1964,
      "##stem": 1965,
      "##ony": 1966,
      "##oss": 1967,
      "imp": 1968,
      "##ues": 1969,
      "##ets": 1970,
      "##uth": 1971,
      "company": 1972,
      "character": 1973,
      "bre": 1974,
      "rep": 1975,
      "final": 1976,
      "##xt": 1977,
      "another": 1978,
      "##anc": 1979,
      "195": 1980,
      "success": 1981,
      "award": 1982,
      "river": 1983,
      "##ident": 1984,
      "sept": 1985,
      "public": 1986,
      "##omin": 1987,
      "if": 1988,
      "prot": 1989,
      "eur": 1990,
      "just": 1991,
      "attack": 1992,
      "consid": 1993,
      "coll": 1994,
      "ra": 1995,
      "##ales": 1996,
      "fur": 1997,
      "great": 1998,
      "system": 1999,
      "september": 2000,
      "mid": 2001,
      "storm": 2002,
      "conf": 2003,
      "class": 2004,
      "##ina": 2005,
      "##ution": 2006,
      "ge": 2007,
      "hum": 2008,
      "line": 2009,
      "report": 2010,
      "##aining": 2011,
      "##app": 2012,
      "tit": 2013,
      "ext": 2014,
      "large": 2015,
      "austral": 2016,
      "games": 2017,
      "what": 2018,
      "my": 2019,
      "cor": 2020,
      "arr": 2021,
      "arch": 2022,
      "gl": 2023,
      "##ob": 2024,
      "##ural": 2025,
      "av": 2026,
      "tri": 2027,
      "det": 2028,
      "193": 2029,
      "black": 2030,
      "child": 2031,
      "##ms": 2032,
      "water": 2033,
      "short": 2034,
      "##ked": 2035,
      "191": 2036,
      "rest": 2037,
      "##ble": 2038,
      "due": 2039,
      "la": 2040,
      "##ient": 2041,
      "##ague": 2042,
      "##und": 2043,
      "ii": 2044,
      "##ute": 2045,
      "last": 2046,
      "##ired": 2047,
      "##aving": 2048,
      "now": 2049,
      "##aced": 2050,
      "ent": 2051,
      "june": 2052,
      "east": 2053,
      "history": 2054,
      "vide": 2055,
      "##ats": 2056,
      "14": 2057,
      "oct": 2058,
      "##dom": 2059,
      "late": 2060,
      "##ored": 2061,
      "##ives": 2062,
      "even": 2063,
      "jan": 2064,
      "name": 2065,
      "way": 2066,
      "review": 2067,
      "vers": 2068,
      "##ately": 2069,
      "government": 2070,
      "german": 2071,
      "##ilt": 2072,
      "build": 2073,
      "##ene": 2074,
      "turn": 2075,
      "##cl": 2076,
      "partic": 2077,
      "home": 2078,
      "island": 2079,
      "dem": 2080,
      "reach": 2081,
      "##over": 2082,
      "received": 2083,
      "ant": 2084,
      "##ology": 2085,
      "christ": 2086,
      "##ogr": 2087,
      "har": 2088,
      "ins": 2089,
      "univers": 2090,
      "accord": 2091,
      "vis": 2092,
      "gun": 2093,
      "##ages": 2094,
      "described": 2095,
      "much": 2096,
      "hur": 2097,
      "##ech": 2098,
      "##ption": 2099,
      "cour": 2100,
      "ele": 2101,
      "within": 2102,
      "track": 2103,
      "club": 2104,
      "species": 2105,
      "incre": 2106,
      "hal": 2107,
      "##ober": 2108,
      "march": 2109,
      "god": 2110,
      "death": 2111,
      "men": 2112,
      "del": 2113,
      "top": 2114,
      "##uary": 2115,
      "ke": 2116,
      "intern": 2117,
      "general": 2118,
      "##erv": 2119,
      "##ling": 2120,
      "##by": 2121,
      "family": 2122,
      "##ility": 2123,
      "october": 2124,
      "##ting": 2125,
      "##aged": 2126,
      "played": 2127,
      "sk": 2128,
      "##ead": 2129,
      "##gin": 2130,
      "sw": 2131,
      "typ": 2132,
      "according": 2133,
      "##ae": 2134,
      "league": 2135,
      "times": 2136,
      "took": 2137,
      "capt": 2138,
      "##ropical": 2139,
      "##aim": 2140,
      "##ified": 2141,
      "third": 2142,
      "##ody": 2143,
      "leg": 2144,
      "##rote": 2145,
      "ref": 2146,
      "##ants": 2147,
      "power": 2148,
      "##ively": 2149,
      "25": 2150,
      "list": 2151,
      "single": 2152,
      "##eal": 2153,
      "july": 2154,
      "soc": 2155,
      "wrote": 2156,
      "##ograph": 2157,
      "won": 2158,
      "##ball": 2159,
      "##empt": 2160,
      "##iving": 2161,
      "organ": 2162,
      "video": 2163,
      "##ians": 2164,
      "control": 2165,
      "differ": 2166,
      "##ren": 2167,
      "##ides": 2168,
      "event": 2169,
      "##ink": 2170,
      "stre": 2171,
      "white": 2172,
      "sol": 2173,
      "progr": 2174,
      "allow": 2175,
      "appro": 2176,
      "apr": 2177,
      "##eder": 2178,
      "based": 2179,
      "dest": 2180,
      "##ner": 2181,
      "conv": 2182,
      "poss": 2183,
      "april": 2184,
      "tem": 2185,
      "story": 2186,
      "##iod": 2187,
      "included": 2188,
      "val": 2189,
      "common": 2190,
      "person": 2191,
      "bas": 2192,
      "##ital": 2193,
      "##ai": 2194,
      "left": 2195,
      "belie": 2196,
      "york": 2197,
      "estab": 2198,
      "january": 2199,
      "those": 2200,
      "division": 2201,
      "result": 2202,
      "named": 2203,
      "very": 2204,
      "##ically": 2205,
      "##akes": 2206,
      "expl": 2207,
      "addition": 2208,
      "30": 2209,
      "prom": 2210,
      "attempt": 2211,
      "england": 2212,
      "##aur": 2213,
      "##ances": 2214,
      "period": 2215,
      "foot": 2216,
      "##ew": 2217,
      "auth": 2218,
      "house": 2219,
      "##atter": 2220,
      "##ll": 2221,
      "##itions": 2222,
      "hand": 2223,
      "vill": 2224,
      "previous": 2225,
      "eas": 2226,
      "##ven": 2227,
      "##ops": 2228,
      "bus": 2229,
      "##ention": 2230,
      "##par": 2231,
      "##itch": 2232,
      "##ilar": 2233,
      "enter": 2234,
      "##ature": 2235,
      "far": 2236,
      "original": 2237,
      "vict": 2238,
      "##ps": 2239,
      "heav": 2240,
      "##ought": 2241,
      "mo": 2242,
      "som": 2243,
      "##ham": 2244,
      "##ulation": 2245,
      "november": 2246,
      "##que": 2247,
      "##ark": 2248,
      "##ik": 2249,
      "commun": 2250,
      "month": 2251,
      "cal": 2252,
      "place": 2253,
      "kill": 2254,
      "europe": 2255,
      "light": 2256,
      "##med": 2257,
      "champ": 2258,
      "field": 2259,
      "tropical": 2260,
      "##raft": 2261,
      "stand": 2262,
      "##ards": 2263,
      "##ished": 2264,
      "##ience": 2265,
      "##bo": 2266,
      "192": 2267,
      "december": 2268,
      "##ench": 2269,
      "built": 2270,
      "similar": 2271,
      "opp": 2272,
      "sug": 2273,
      "sent": 2274,
      "real": 2275,
      "##let": 2276,
      "##mer": 2277,
      "among": 2278,
      "milit": 2279,
      "match": 2280,
      "songs": 2281,
      "repr": 2282,
      "hurric": 2283,
      "led": 2284,
      "make": 2285,
      "##ime": 2286,
      "present": 2287,
      "##ler": 2288,
      "further": 2289,
      "init": 2290,
      "pat": 2291,
      "##ense": 2292,
      "mark": 2293,
      "cur": 2294,
      "player": 2295,
      "local": 2296,
      "##ences": 2297,
      "100": 2298,
      "law": 2299,
      "##iven": 2300,
      "wind": 2301,
      "requ": 2302,
      "still": 2303,
      "tour": 2304,
      "##sc": 2305,
      "##iation": 2306,
      "##inc": 2307,
      "next": 2308,
      "squ": 2309,
      "##sh": 2310,
      "##br": 2311,
      "2009": 2312,
      "##por": 2313,
      "view": 2314,
      "youn": 2315,
      "##ness": 2316,
      "##gy": 2317,
      "bill": 2318,
      "trad": 2319,
      "2008": 2320,
      "##ger": 2321,
      "tot": 2322,
      "super": 2323,
      "2010": 2324,
      "##ison": 2325,
      "##uss": 2326,
      "##ruction": 2327,
      "pri": 2328,
      "cle": 2329,
      "##ars": 2330,
      "##aster": 2331,
      "exper": 2332,
      "rock": 2333,
      "iss": 2334,
      "tele": 2335,
      "##bs": 2336,
      "import": 2337,
      "brig": 2338,
      "repl": 2339,
      "role": 2340,
      "post": 2341,
      "histor": 2342,
      "came": 2343,
      "plan": 2344,
      "##line": 2345,
      "fre": 2346,
      "low": 2347,
      "every": 2348,
      "right": 2349,
      "band": 2350,
      "say": 2351,
      "side": 2352,
      "##min": 2353,
      "love": 2354,
      "career": 2355,
      "moved": 2356,
      "cast": 2357,
      "##aff": 2358,
      "university": 2359,
      "##ival": 2360,
      "without": 2361,
      "##ott": 2362,
      "beh": 2363,
      "##aken": 2364,
      "polit": 2365,
      "coun": 2366,
      "often": 2367,
      "mor": 2368,
      "##ged": 2369,
      "recorded": 2370,
      "few": 2371,
      "effect": 2372,
      "rad": 2373,
      "##ush": 2374,
      "hurricane": 2375,
      "##ories": 2376,
      "contr": 2377,
      "chart": 2378,
      "military": 2379,
      "caus": 2380,
      "tre": 2381,
      "##yle": 2382,
      "##bert": 2383,
      "park": 2384,
      "##ength": 2385,
      "suggest": 2386,
      "memb": 2387,
      "order": 2388,
      "considered": 2389,
      "battal": 2390,
      "less": 2391,
      "prof": 2392,
      "rou": 2393,
      "deb": 2394,
      "production": 2395,
      "army": 2396,
      "release": 2397,
      "##ister": 2398,
      "##ady": 2399,
      "see": 2400,
      "2007": 2401,
      "former": 2402,
      "assoc": 2403,
      "##elt": 2404,
      "level": 2405,
      "##ior": 2406,
      "cy": 2407,
      "sold": 2408,
      "##lu": 2409,
      "english": 2410,
      "week": 2411,
      "french": 2412,
      "fire": 2413,
      "wal": 2414,
      "claim": 2415,
      "fun": 2416,
      "##thing": 2417,
      "point": 2418,
      "take": 2419,
      "refer": 2420,
      "##ross": 2421,
      "published": 2422,
      "repres": 2423,
      "##uted": 2424,
      "ang": 2425,
      "project": 2426,
      "##wards": 2427,
      "written": 2428,
      "##ico": 2429,
      "half": 2430,
      "different": 2431,
      "feder": 2432,
      "spe": 2433,
      "continued": 2434,
      "##wh": 2435,
      "roy": 2436,
      "surv": 2437,
      "##ensive": 2438,
      "##side": 2439,
      "##thers": 2440,
      "##ves": 2441,
      "days": 2442,
      "##na": 2443,
      "ha": 2444,
      "##ada": 2445,
      "frie": 2446,
      "held": 2447,
      "forces": 2448,
      "manag": 2449,
      "international": 2450,
      "author": 2451,
      "cult": 2452,
      "night": 2453,
      "obs": 2454,
      "21": 2455,
      "strong": 2456,
      "route": 2457,
      "##ared": 2458,
      "never": 2459,
      "desp": 2460,
      "nav": 2461,
      "pet": 2462,
      "help": 2463,
      "prop": 2464,
      "force": 2465,
      "press": 2466,
      "good": 2467,
      "##ission": 2468,
      "friend": 2469,
      "defe": 2470,
      "cross": 2471,
      "sound": 2472,
      "##iter": 2473,
      "##iment": 2474,
      "stat": 2475,
      "##ices": 2476,
      "find": 2477,
      "jack": 2478,
      "gold": 2479,
      "##erc": 2480,
      "##idge": 2481,
      "county": 2482,
      "having": 2483,
      "chang": 2484,
      "compet": 2485,
      "##estern": 2486,
      "##enc": 2487,
      "23": 2488,
      "##tended": 2489,
      "mount": 2490,
      "##vision": 2491,
      "##ret": 2492,
      "throughout": 2493,
      "##itar": 2494,
      "champions": 2495,
      "members": 2496,
      "whe": 2497,
      "##ots": 2498,
      "2011": 2499,
      "sum": 2500,
      "become": 2501,
      "##arn": 2502,
      "2006": 2503,
      "##raw": 2504,
      "popular": 2505,
      "children": 2506,
      "particular": 2507,
      "##rodu": 2508,
      "comb": 2509,
      "grand": 2510,
      "##augh": 2511,
      "version": 2512,
      "total": 2513,
      "development": 2514,
      "ir": 2515,
      "earl": 2516,
      "title": 2517,
      "##bru": 2518,
      "##ising": 2519,
      "lost": 2520,
      "roman": 2521,
      "position": 2522,
      "pal": 2523,
      "rich": 2524,
      "##amb": 2525,
      "##ize": 2526,
      "country": 2527,
      "24": 2528,
      "##ple": 2529,
      "##ford": 2530,
      "highway": 2531,
      "26": 2532,
      "cover": 2533,
      "don": 2534,
      "litt": 2535,
      "pur": 2536,
      "program": 2537,
      "despite": 2538,
      "22": 2539,
      "fem": 2540,
      "live": 2541,
      "pa": 2542,
      "##roy": 2543,
      "battle": 2544,
      "eight": 2545,
      "fle": 2546,
      "##ipp": 2547,
      "fort": 2548,
      "southern": 2549,
      "little": 2550,
      "sit": 2551,
      "##aces": 2552,
      "want": 2553,
      "febru": 2554,
      "critic": 2555,
      "february": 2556,
      "##press": 2557,
      "central": 2558,
      "represent": 2559,
      "reported": 2560,
      "activ": 2561,
      "gave": 2562,
      "##ring": 2563,
      "produced": 2564,
      "##ylan": 2565,
      "geor": 2566,
      "ham": 2567,
      "dylan": 2568,
      "human": 2569,
      "##day": 2570,
      "free": 2571,
      "mich": 2572,
      "site": 2573,
      "influ": 2574,
      "ord": 2575,
      "##ailed": 2576,
      "cath": 2577,
      "##ara": 2578,
      "television": 2579,
      "once": 2580,
      "2012": 2581,
      "writing": 2582,
      "given": 2583,
      "##ened": 2584,
      "##ests": 2585,
      "##ours": 2586,
      "##iety": 2587,
      "lab": 2588,
      "##ried": 2589,
      "##apan": 2590,
      "modern": 2591,
      "28": 2592,
      "coast": 2593,
      "president": 2594,
      "service": 2595,
      "northern": 2596,
      "hor": 2597,
      "##ama": 2598,
      "ground": 2599,
      "young": 2600,
      "age": 2601,
      "sun": 2602,
      "afric": 2603,
      "equ": 2604,
      "##yn": 2605,
      "arg": 2606,
      "signific": 2607,
      "japan": 2608,
      "mass": 2609,
      "vi": 2610,
      "elect": 2611,
      "include": 2612,
      "region": 2613,
      "invol": 2614,
      "##echn": 2615,
      "hero": 2616,
      "western": 2617,
      "##omen": 2618,
      "##ably": 2619,
      "lim": 2620,
      "##xim": 2621,
      "conn": 2622,
      "ball": 2623,
      "fact": 2624,
      "ill": 2625,
      "royal": 2626,
      "burn": 2627,
      "mi": 2628,
      "ve": 2629,
      "battalion": 2630,
      "seven": 2631,
      "making": 2632,
      "should": 2633,
      "away": 2634,
      "body": 2635,
      "##con": 2636,
      "##atic": 2637,
      "too": 2638,
      "eastern": 2639,
      "dou": 2640,
      "dav": 2641,
      "wood": 2642,
      "struct": 2643,
      "##ches": 2644,
      "trav": 2645,
      "aff": 2646,
      "##ploy": 2647,
      "occur": 2648,
      "tor": 2649,
      "techn": 2650,
      "2013": 2651,
      "##ones": 2652,
      "seen": 2653,
      "exc": 2654,
      "look": 2655,
      "##ades": 2656,
      "fif": 2657,
      "##ress": 2658,
      "stated": 2659,
      "##play": 2660,
      "ft": 2661,
      "ten": 2662,
      "dev": 2663,
      "across": 2664,
      "returned": 2665,
      "##ax": 2666,
      "##sequ": 2667,
      "instead": 2668,
      "##ese": 2669,
      "prim": 2670,
      "ships": 2671,
      "tro": 2672,
      "##ator": 2673,
      "guitar": 2674,
      "destroy": 2675,
      "established": 2676,
      "bur": 2677,
      "##ological": 2678,
      "using": 2679,
      "cas": 2680,
      "##fic": 2681,
      "##ape": 2682,
      "50": 2683,
      "son": 2684,
      "##inted": 2685,
      "##otion": 2686,
      "190": 2687,
      "population": 2688,
      "construction": 2689,
      "full": 2690,
      "##be": 2691,
      "america": 2692,
      "noted": 2693,
      "##iction": 2694,
      "announ": 2695,
      "ire": 2696,
      "championship": 2697,
      "27": 2698,
      "##ying": 2699,
      "##ki": 2700,
      "##ither": 2701,
      "broad": 2702,
      "introdu": 2703,
      "reached": 2704,
      "net": 2705,
      "##ground": 2706,
      "developed": 2707,
      "building": 2708,
      "football": 2709,
      "civ": 2710,
      "mix": 2711,
      "##iec": 2712,
      "##aint": 2713,
      "thought": 2714,
      "players": 2715,
      "ireland": 2716,
      "##ument": 2717,
      "brigade": 2718,
      "mean": 2719,
      "bi": 2720,
      "various": 2721,
      "lond": 2722,
      "works": 2723,
      "significant": 2724,
      "vir": 2725,
      "engine": 2726,
      "important": 2727,
      "read": 2728,
      "performance": 2729,
      "##self": 2730,
      "##ef": 2731,
      "##rew": 2732,
      "william": 2733,
      "miles": 2734,
      "london": 2735,
      "father": 2736,
      "indust": 2737,
      "himself": 2738,
      "kingdom": 2739,
      "##used": 2740,
      "cert": 2741,
      "##ket": 2742,
      "style": 2743,
      "need": 2744,
      "##ne": 2745,
      "##iness": 2746,
      "pra": 2747,
      "bird": 2748,
      "fig": 2749,
      "##work": 2750,
      "##co": 2751,
      "front": 2752,
      "performed": 2753,
      "felt": 2754,
      "hy": 2755,
      "##ald": 2756,
      "##omb": 2757,
      "##idence": 2758,
      "australia": 2759,
      "fall": 2760,
      "od": 2761,
      "tur": 2762,
      "cir": 2763,
      "brown": 2764,
      "official": 2765,
      "put": 2766,
      "areas": 2767,
      "feet": 2768,
      "earth": 2769,
      "mer": 2770,
      "ver": 2771,
      "went": 2772,
      "suff": 2773,
      "events": 2774,
      "fac": 2775,
      "ol": 2776,
      "##get": 2777,
      "##most": 2778,
      "##vers": 2779,
      "##itive": 2780,
      "decl": 2781,
      "does": 2782,
      "phil": 2783,
      "civil": 2784,
      "cup": 2785,
      "rh": 2786,
      "bri": 2787,
      "mm": 2788,
      "vol": 2789,
      "begin": 2790,
      "bow": 2791,
      "##mp": 2792,
      "relations": 2793,
      "poem": 2794,
      "died": 2795,
      "##osaur": 2796,
      "relig": 2797,
      "sett": 2798,
      "##ucle": 2799,
      "court": 2800,
      "ap": 2801,
      "cer": 2802,
      "let": 2803,
      "range": 2804,
      "##ief": 2805,
      "hom": 2806,
      "vo": 2807,
      "##oph": 2808,
      "successful": 2809,
      "lang": 2810,
      "others": 2811,
      "##ges": 2812,
      "##ino": 2813,
      "##ogn": 2814,
      "wall": 2815,
      "##aign": 2816,
      "##ster": 2817,
      "##antic": 2818,
      "originally": 2819,
      "sn": 2820,
      "##unch": 2821,
      "##reek": 2822,
      "##pression": 2823,
      "campaign": 2824,
      "gal": 2825,
      "get": 2826,
      "##ael": 2827,
      "upon": 2828,
      "##me": 2829,
      "##field": 2830,
      "##ana": 2831,
      "##ements": 2832,
      "base": 2833,
      "##craft": 2834,
      "hot": 2835,
      "##ering": 2836,
      "##ization": 2837,
      "novel": 2838,
      "started": 2839,
      "james": 2840,
      "##ung": 2841,
      "formed": 2842,
      "know": 2843,
      "##gether": 2844,
      "characters": 2845,
      "political": 2846,
      "sal": 2847,
      "##lo": 2848,
      "##ript": 2849,
      "women": 2850,
      "##ints": 2851,
      "##iting": 2852,
      "circ": 2853,
      "##ration": 2854,
      "##ination": 2855,
      "proc": 2856,
      "pred": 2857,
      "special": 2858,
      "stars": 2859,
      "discover": 2860,
      "born": 2861,
      "scient": 2862,
      "ly": 2863,
      "sel": 2864,
      "tradition": 2865,
      "caused": 2866,
      "hold": 2867,
      "prote": 2868,
      "located": 2869,
      "eventually": 2870,
      "word": 2871,
      "street": 2872,
      "hill": 2873,
      "##iers": 2874,
      "##aves": 2875,
      "director": 2876,
      "resear": 2877,
      "##af": 2878,
      "##alth": 2879,
      "center": 2880,
      "created": 2881,
      "nar": 2882,
      "pen": 2883,
      "able": 2884,
      "189": 2885,
      "critics": 2886,
      "research": 2887,
      "##ney": 2888,
      "entire": 2889,
      "ber": 2890,
      "##ox": 2891,
      "##fall": 2892,
      "enc": 2893,
      "2004": 2894,
      "atl": 2895,
      "##isted": 2896,
      "2005": 2897,
      "produc": 2898,
      "aud": 2899,
      "##ament": 2900,
      "##epend": 2901,
      "wr": 2902,
      "magaz": 2903,
      "fight": 2904,
      "tom": 2905,
      "anim": 2906,
      "##ested": 2907,
      "independ": 2908,
      "##ality": 2909,
      "##acy": 2910,
      "cop": 2911,
      "fav": 2912,
      "mc": 2913,
      "nucle": 2914,
      "colon": 2915,
      "##arch": 2916,
      "together": 2917,
      "bir": 2918,
      "grow": 2919,
      "##oming": 2920,
      "meet": 2921,
      "bay": 2922,
      "inn": 2923,
      "##asing": 2924,
      "stri": 2925,
      "cond": 2926,
      "ide": 2927,
      "heavy": 2928,
      "san": 2929,
      "colle": 2930,
      "guns": 2931,
      "hon": 2932,
      "chap": 2933,
      "##ries": 2934,
      "##ample": 2935,
      "##ille": 2936,
      "sex": 2937,
      "diffic": 2938,
      "difficult": 2939,
      "mother": 2940,
      "##itted": 2941,
      "##ects": 2942,
      "remained": 2943,
      "##enth": 2944,
      "depart": 2945,
      "##ship": 2946,
      "agre": 2947,
      "goal": 2948,
      "completed": 2949,
      "31": 2950,
      "nat": 2951,
      "scored": 2952,
      "non": 2953,
      "voc": 2954,
      "##orts": 2955,
      "loss": 2956,
      "##iated": 2957,
      "##ivid": 2958,
      "australian": 2959,
      "announced": 2960,
      "##king": 2961,
      "fourth": 2962,
      "ho": 2963,
      "mad": 2964,
      "mem": 2965,
      "sil": 2966,
      "##li": 2967,
      "almost": 2968,
      "den": 2969,
      "##ota": 2970,
      "comment": 2971,
      "peak": 2972,
      "damage": 2973,
      "behind": 2974,
      "jour": 2975,
      "##ee": 2976,
      "##anch": 2977,
      "reb": 2978,
      "least": 2979,
      "cell": 2980,
      "##enced": 2981,
      "##aly": 2982,
      "sea": 2983,
      "party": 2984,
      "rail": 2985,
      "##omp": 2986,
      "##elling": 2987,
      "added": 2988,
      "29": 2989,
      "hol": 2990,
      "##ids": 2991,
      "flor": 2992,
      "territ": 2993,
      "du": 2994,
      "ru": 2995,
      "##ray": 2996,
      "##ream": 2997,
      "process": 2998,
      "aver": 2999,
      "key": 3000,
      "##less": 3001,
      "condom": 3002,
      "followed": 3003,
      "months": 3004,
      "killed": 3005,
      "mach": 3006,
      "pitch": 3007,
      "wife": 3008,
      "insp": 3009,
      "appeared": 3010,
      "quar": 3011,
      "ident": 3012,
      "squad": 3013,
      "relationship": 3014,
      "##mar": 3015,
      "inform": 3016,
      "##aper": 3017,
      "playing": 3018,
      "individ": 3019,
      "hall": 3020,
      "round": 3021,
      "##ique": 3022,
      "##cil": 3023,
      "fa": 3024,
      "sour": 3025,
      "awards": 3026,
      "david": 3027,
      "ach": 3028,
      "mac": 3029,
      "sat": 3030,
      "##omm": 3031,
      "station": 3032,
      "recogn": 3033,
      "curr": 3034,
      "jew": 3035,
      "kh": 3036,
      "features": 3037,
      "trib": 3038,
      "40": 3039,
      "hard": 3040,
      "##den": 3041,
      "##tim": 3042,
      "##ky": 3043,
      "##osp": 3044,
      "##antry": 3045,
      "flight": 3046,
      "aircraft": 3047,
      "##dle": 3048,
      "##ius": 3049,
      "##gn": 3050,
      "##ston": 3051,
      "estim": 3052,
      "bra": 3053,
      "card": 3054,
      "2003": 3055,
      "appo": 3056,
      "185": 3057,
      "parl": 3058,
      "der": 3059,
      "treat": 3060,
      "taken": 3061,
      "ul": 3062,
      "##emy": 3063,
      "##ways": 3064,
      "fleet": 3065,
      "lack": 3066,
      "saw": 3067,
      "##olution": 3068,
      "2015": 3069,
      "creat": 3070,
      "fund": 3071,
      "rank": 3072,
      "##uit": 3073,
      "##ming": 3074,
      "france": 3075,
      "##ully": 3076,
      "interv": 3077,
      "action": 3078,
      "subsequ": 3079,
      "leading": 3080,
      "langu": 3081,
      "##esh": 3082,
      "tal": 3083,
      "ur": 3084,
      "##ani": 3085,
      "impro": 3086,
      "either": 3087,
      "mater": 3088,
      "##etic": 3089,
      "proble": 3090,
      "separ": 3091,
      "served": 3092,
      "recording": 3093,
      "case": 3094,
      "hen": 3095,
      "towards": 3096,
      "##istic": 3097,
      "parliam": 3098,
      "edu": 3099,
      "##ata": 3100,
      "operations": 3101,
      "archae": 3102,
      "##ography": 3103,
      "los": 3104,
      "decided": 3105,
      "transport": 3106,
      "##utes": 3107,
      "clos": 3108,
      "rul": 3109,
      "wid": 3110,
      "##ida": 3111,
      "elements": 3112,
      "ath": 3113,
      "cru": 3114,
      "draw": 3115,
      "host": 3116,
      "past": 3117,
      "close": 3118,
      "soon": 3119,
      "##ency": 3120,
      "er": 3121,
      "##to": 3122,
      "##ze": 3123,
      "robert": 3124,
      "prem": 3125,
      "records": 3126,
      "di": 3127,
      "##ecut": 3128,
      "##cted": 3129,
      "commerc": 3130,
      "accept": 3131,
      "generally": 3132,
      "believed": 3133,
      "magazine": 3134,
      "##igned": 3135,
      "flood": 3136,
      "move": 3137,
      "parliament": 3138,
      "cost": 3139,
      "rose": 3140,
      "tow": 3141,
      "compos": 3142,
      "council": 3143,
      "carey": 3144,
      "meas": 3145,
      "saf": 3146,
      "female": 3147,
      "##cent": 3148,
      "##my": 3149,
      "##ica": 3150,
      "example": 3151,
      "mex": 3152,
      "gir": 3153,
      "que": 3154,
      "##go": 3155,
      "commission": 3156,
      "regular": 3157,
      "infantry": 3158,
      "manager": 3159,
      "domin": 3160,
      "points": 3161,
      "business": 3162,
      "fly": 3163,
      "##ped": 3164,
      "188": 3165,
      "weeks": 3166,
      "bal": 3167,
      "rather": 3168,
      "##ned": 3169,
      "study": 3170,
      "stop": 3171,
      "european": 3172,
      "##erm": 3173,
      "outside": 3174,
      "federer": 3175,
      "foc": 3176,
      "##ators": 3177,
      "##ential": 3178,
      "##spec": 3179,
      "opened": 3180,
      "educ": 3181,
      "35": 3182,
      "cut": 3183,
      "##lin": 3184,
      "beg": 3185,
      "##odes": 3186,
      "adm": 3187,
      "brought": 3188,
      "finished": 3189,
      "regard": 3190,
      "directed": 3191,
      "approach": 3192,
      "viet": 3193,
      "##oring": 3194,
      "wales": 3195,
      "##uter": 3196,
      "##ceed": 3197,
      "##umb": 3198,
      "##rict": 3199,
      "blue": 3200,
      "esc": 3201,
      "mal": 3202,
      "ven": 3203,
      "yard": 3204,
      "earlier": 3205,
      "##nes": 3206,
      "bey": 3207,
      "featured": 3208,
      "achie": 3209,
      "mcc": 3210,
      "inh": 3211,
      "##imes": 3212,
      "##aps": 3213,
      "union": 3214,
      "secret": 3215,
      "teach": 3216,
      "sym": 3217,
      "redu": 3218,
      "respect": 3219,
      "launch": 3220,
      "victory": 3221,
      "mos": 3222,
      "member": 3223,
      "rain": 3224,
      "##read": 3225,
      "stru": 3226,
      "##oted": 3227,
      "sequ": 3228,
      "big": 3229,
      "##wood": 3230,
      "express": 3231,
      "priv": 3232,
      "##ordan": 3233,
      "##board": 3234,
      "ey": 3235,
      "##ole": 3236,
      "condu": 3237,
      "prob": 3238,
      "##action": 3239,
      "anti": 3240,
      "radio": 3241,
      "##tain": 3242,
      "stage": 3243,
      "wil": 3244,
      "##asion": 3245,
      "muse": 3246,
      "provided": 3247,
      "association": 3248,
      "stay": 3249,
      "186": 3250,
      "indic": 3251,
      "working": 3252,
      "appearance": 3253,
      "opening": 3254,
      "village": 3255,
      "troops": 3256,
      "jordan": 3257,
      "tech": 3258,
      "##eler": 3259,
      "deal": 3260,
      "syn": 3261,
      "wanted": 3262,
      "mot": 3263,
      "mult": 3264,
      "##sel": 3265,
      "gar": 3266,
      "##ores": 3267,
      "reason": 3268,
      "pract": 3269,
      "##ellow": 3270,
      "employ": 3271,
      "winds": 3272,
      "particularly": 3273,
      "pot": 3274,
      "##oid": 3275,
      "neg": 3276,
      "atlantic": 3277,
      "girl": 3278,
      "cam": 3279,
      "jud": 3280,
      "norm": 3281,
      "sem": 3282,
      "##ania": 3283,
      "depression": 3284,
      "2014": 3285,
      "minor": 3286,
      "crew": 3287,
      "initially": 3288,
      "rap": 3289,
      "race": 3290,
      "##ouri": 3291,
      "evidence": 3292,
      "instit": 3293,
      "middle": 3294,
      "christian": 3295,
      "social": 3296,
      "##medi": 3297,
      "clear": 3298,
      "observ": 3299,
      "summer": 3300,
      "museum": 3301,
      "mur": 3302,
      "mary": 3303,
      "come": 3304,
      "office": 3305,
      "largest": 3306,
      "500": 3307,
      "kil": 3308,
      "nec": 3309,
      "pan": 3310,
      "george": 3311,
      "sus": 3312,
      "##erous": 3313,
      "anc": 3314,
      "19th": 3315,
      "exist": 3316,
      "invest": 3317,
      "possible": 3318,
      "length": 3319,
      "##west": 3320,
      "##atin": 3321,
      "##ago": 3322,
      "above": 3323,
      "room": 3324,
      "type": 3325,
      "commercial": 3326,
      "ban": 3327,
      "sam": 3328,
      "##thod": 3329,
      "##eter": 3330,
      "yards": 3331,
      "##oth": 3332,
      "cho": 3333,
      "##iff": 3334,
      "construct": 3335,
      "material": 3336,
      "hit": 3337,
      "must": 3338,
      "##ounted": 3339,
      "feel": 3340,
      "florida": 3341,
      "wild": 3342,
      "##val": 3343,
      "##ker": 3344,
      "##ita": 3345,
      "##ington": 3346,
      "diss": 3347,
      "regiment": 3348,
      "acad": 3349,
      "allowed": 3350,
      "prior": 3351,
      "saying": 3352,
      "nine": 3353,
      "##ude": 3354,
      "respons": 3355,
      "hours": 3356,
      "##gg": 3357,
      "poor": 3358,
      "critical": 3359,
      "somet": 3360,
      "paul": 3361,
      "viol": 3362,
      "oliv": 3363,
      "quarter": 3364,
      "creek": 3365,
      "fut": 3366,
      "nomin": 3367,
      "operation": 3368,
      "repub": 3369,
      "econ": 3370,
      "##east": 3371,
      "##cast": 3372,
      "whom": 3373,
      "strength": 3374,
      "econom": 3375,
      "lower": 3376,
      "liter": 3377,
      "pain": 3378,
      "lik": 3379,
      "quick": 3380,
      "specific": 3381,
      "reception": 3382,
      "missouri": 3383,
      "horse": 3384,
      "food": 3385,
      "##off": 3386,
      "##ck": 3387,
      "##for": 3388,
      "seem": 3389,
      "princ": 3390,
      "2001": 3391,
      "worked": 3392,
      "police": 3393,
      "society": 3394,
      "test": 3395,
      "##oon": 3396,
      "##gar": 3397,
      "##ville": 3398,
      "##aries": 3399,
      "designed": 3400,
      "community": 3401,
      "pac": 3402,
      "previously": 3403,
      "doc": 3404,
      "##uel": 3405,
      "break": 3406,
      "##ih": 3407,
      "##bor": 3408,
      "##onst": 3409,
      "forced": 3410,
      "goals": 3411,
      "era": 3412,
      "fish": 3413,
      "##bar": 3414,
      "##erson": 3415,
      "heart": 3416,
      "##vert": 3417,
      "##oney": 3418,
      "remains": 3419,
      "praised": 3420,
      "fiction": 3421,
      "watch": 3422,
      "phys": 3423,
      "capital": 3424,
      "contract": 3425,
      "republic": 3426,
      "mart": 3427,
      "threat": 3428,
      "##ett": 3429,
      "shot": 3430,
      "scre": 3431,
      "prepar": 3432,
      "indian": 3433,
      "mont": 3434,
      "increased": 3435,
      "profession": 3436,
      "michael": 3437,
      "lin": 3438,
      "ny": 3439,
      "uk": 3440,
      "##gu": 3441,
      "##iding": 3442,
      "coach": 3443,
      "account": 3444,
      "avail": 3445,
      "##rated": 3446,
      "##itz": 3447,
      "unc": 3448,
      "187": 3449,
      "media": 3450,
      "interview": 3451,
      "aut": 3452,
      "hu": 3453,
      "hous": 3454,
      "hosp": 3455,
      "##uation": 3456,
      "theat": 3457,
      "stone": 3458,
      "interest": 3459,
      "surf": 3460,
      "background": 3461,
      "##gypt": 3462,
      "##ving": 3463,
      "units": 3464,
      "##ended": 3465,
      "studio": 3466,
      "commander": 3467,
      "egypt": 3468,
      "taking": 3469,
      "proper": 3470,
      "writer": 3471,
      "##ronic": 3472,
      "object": 3473,
      "replaced": 3474,
      "face": 3475,
      "##nal": 3476,
      "thom": 3477,
      "##ula": 3478,
      "##elled": 3479,
      "parts": 3480,
      "richard": 3481,
      "##xas": 3482,
      "inj": 3483,
      "##usion": 3484,
      "##ributed": 3485,
      "navy": 3486,
      "industry": 3487,
      "dom": 3488,
      "ot": 3489,
      "##ma": 3490,
      "##erved": 3491,
      "##ites": 3492,
      "##lement": 3493,
      "##abit": 3494,
      "assist": 3495,
      "subst": 3496,
      "discuss": 3497,
      "approxim": 3498,
      "section": 3499,
      "##band": 3500,
      "##ste": 3501,
      "dead": 3502,
      "##ription": 3503,
      "commit": 3504,
      "##anned": 3505,
      "cycl": 3506,
      "religious": 3507,
      "college": 3508,
      "bod": 3509,
      "##head": 3510,
      "##reg": 3511,
      "highest": 3512,
      "reviews": 3513,
      "henry": 3514,
      "happ": 3515,
      "##olic": 3516,
      "##eston": 3517,
      "canada": 3518,
      "claimed": 3519,
      "beginning": 3520,
      "estimated": 3521,
      "mph": 3522,
      "pay": 3523,
      "rang": 3524,
      "##round": 3525,
      "##eth": 3526,
      "##atory": 3527,
      "except": 3528,
      "carol": 3529,
      "imm": 3530,
      "certain": 3531,
      "ox": 3532,
      "touch": 3533,
      "##omet": 3534,
      "forest": 3535,
      "##ulf": 3536,
      "##ibility": 3537,
      "canad": 3538,
      "joined": 3539,
      "oldham": 3540,
      "establish": 3541,
      "travel": 3542,
      "36": 3543,
      "lines": 3544,
      "placed": 3545,
      "grad": 3546,
      "assemb": 3547,
      "green": 3548,
      "japanese": 3549,
      "average": 3550,
      "dig": 3551,
      "##men": 3552,
      "##stand": 3553,
      "stories": 3554,
      "change": 3555,
      "##ulated": 3556,
      "##ump": 3557,
      "training": 3558,
      "signed": 3559,
      "suggested": 3560,
      "involved": 3561,
      "##ecutive": 3562,
      "bab": 3563,
      "wat": 3564,
      "##ows": 3565,
      "intens": 3566,
      "increasing": 3567,
      "introduced": 3568,
      "45": 3569,
      "pu": 3570,
      "##ties": 3571,
      "scen": 3572,
      "itself": 3573,
      "183": 3574,
      "immedi": 3575,
      "transfer": 3576,
      "vietn": 3577,
      "sometimes": 3578,
      "our": 3579,
      "##uk": 3580,
      "today": 3581,
      "arab": 3582,
      "term": 3583,
      "occup": 3584,
      "structure": 3585,
      "athlet": 3586,
      "olivier": 3587,
      "cat": 3588,
      "##imin": 3589,
      "##aker": 3590,
      "scene": 3591,
      "going": 3592,
      "complete": 3593,
      "mexico": 3594,
      "00": 3595,
      "give": 3596,
      "male": 3597,
      "names": 3598,
      "piec": 3599,
      "zeal": 3600,
      "##back": 3601,
      "##gen": 3602,
      "##ari": 3603,
      "##anna": 3604,
      "irish": 3605,
      "##of": 3606,
      "##yer": 3607,
      "thus": 3608,
      "##ready": 3609,
      "abs": 3610,
      "amb": 3611,
      "india": 3612,
      "airport": 3613,
      "additional": 3614,
      "available": 3615,
      "date": 3616,
      "ran": 3617,
      "sen": 3618,
      "##ask": 3619,
      "staff": 3620,
      "language": 3621,
      "hun": 3622,
      "##down": 3623,
      "whose": 3624,
      "##ector": 3625,
      "plot": 3626,
      "remov": 3627,
      "nearly": 3628,
      "fifth": 3629,
      "je": 3630,
      "ren": 3631,
      "##ases": 3632,
      "told": 3633,
      "##ume": 3634,
      "##porary": 3635,
      "thomas": 3636,
      "woman": 3637,
      "think": 3638,
      "##arily": 3639,
      "chic": 3640,
      "contem": 3641,
      "shows": 3642,
      "friends": 3643,
      "approximately": 3644,
      "dut": 3645,
      "dark": 3646,
      "already": 3647,
      "anth": 3648,
      "##achel": 3649,
      "rob": 3650,
      "surround": 3651,
      "damaged": 3652,
      "appointed": 3653,
      "native": 3654,
      "penn": 3655,
      "size": 3656,
      "deep": 3657,
      "##ections": 3658,
      "compan": 3659,
      "britain": 3660,
      "ca": 3661,
      "##gl": 3662,
      "disp": 3663,
      "winning": 3664,
      "turned": 3665,
      "particip": 3666,
      "issue": 3667,
      "debut": 3668,
      "cathed": 3669,
      "probably": 3670,
      "cou": 3671,
      "hop": 3672,
      "jin": 3673,
      "lay": 3674,
      "might": 3675,
      "##apt": 3676,
      "boy": 3677,
      "students": 3678,
      "lyric": 3679,
      "cad": 3680,
      "espec": 3681,
      "##ote": 3682,
      "##ective": 3683,
      "##quar": 3684,
      "news": 3685,
      "184": 3686,
      "passed": 3687,
      "angel": 3688,
      "pacific": 3689,
      "lord": 3690,
      "##acing": 3691,
      "admin": 3692,
      "twent": 3693,
      "board": 3694,
      "better": 3695,
      "quest": 3696,
      "complet": 3697,
      "captain": 3698,
      "zealand": 3699,
      "cred": 3700,
      "upp": 3701,
      "##zz": 3702,
      "withd": 3703,
      "##ateg": 3704,
      "display": 3705,
      "network": 3706,
      "doll": 3707,
      "daugh": 3708,
      "tar": 3709,
      "##ises": 3710,
      "forward": 3711,
      "notes": 3712,
      "overall": 3713,
      "##inese": 3714,
      "visit": 3715,
      "##osaurus": 3716,
      "especially": 3717,
      "mat": 3718,
      "##oration": 3719,
      "##ability": 3720,
      "exh": 3721,
      "enough": 3722,
      "60": 3723,
      "dro": 3724,
      "failed": 3725,
      "roll": 3726,
      "##bc": 3727,
      "chinese": 3728,
      "space": 3729,
      "bridge": 3730,
      "running": 3731,
      "mixed": 3732,
      "lou": 3733,
      "##bers": 3734,
      "exam": 3735,
      "##ails": 3736,
      "musical": 3737,
      "dub": 3738,
      "mel": 3739,
      "##ocks": 3740,
      "2002": 3741,
      "emp": 3742,
      "wheeler": 3743,
      "limited": 3744,
      "natural": 3745,
      "lake": 3746,
      "##nel": 3747,
      "iii": 3748,
      "ordered": 3749,
      "future": 3750,
      "nin": 3751,
      "##lor": 3752,
      "##fect": 3753,
      "plat": 3754,
      "spent": 3755,
      "includes": 3756,
      "remaining": 3757,
      "moving": 3758,
      "arrived": 3759,
      "changes": 3760,
      "virgin": 3761,
      "department": 3762,
      "education": 3763,
      "ast": 3764,
      "##rd": 3765,
      "ali": 3766,
      "##ells": 3767,
      "usually": 3768,
      "larger": 3769,
      "breed": 3770,
      "peter": 3771,
      "##stein": 3772,
      "canadian": 3773,
      "cathedral": 3774,
      "##onse": 3775,
      "concept": 3776,
      "grant": 3777,
      "slow": 3778,
      "broadcast": 3779,
      "birds": 3780,
      "birth": 3781,
      "latter": 3782,
      "saint": 3783,
      "##ios": 3784,
      "##tr": 3785,
      "##ening": 3786,
      "span": 3787,
      "required": 3788,
      "mountain": 3789,
      "upper": 3790,
      "jer": 3791,
      "##ilities": 3792,
      "decision": 3793,
      "voice": 3794,
      "mr": 3795,
      "nature": 3796,
      "oly": 3797,
      "wide": 3798,
      "comed": 3799,
      "##riage": 3800,
      "traff": 3801,
      "remain": 3802,
      "##ference": 3803,
      "response": 3804,
      "africa": 3805,
      "olymp": 3806,
      "##inct": 3807,
      "##orial": 3808,
      "##agon": 3809,
      "2000": 3810,
      "centre": 3811,
      "reveal": 3812,
      "schol": 3813,
      "prevent": 3814,
      "38": 3815,
      "corn": 3816,
      "iron": 3817,
      "jun": 3818,
      "mention": 3819,
      "##ners": 3820,
      "##oke": 3821,
      "related": 3822,
      "poet": 3823,
      "##ification": 3824,
      "feature": 3825,
      "cm": 3826,
      "mounted": 3827,
      "self": 3828,
      "groups": 3829,
      "professional": 3830,
      "rachel": 3831,
      "tv": 3832,
      "##kn": 3833,
      "##ecting": 3834,
      "score": 3835,
      "blood": 3836,
      "films": 3837,
      "supported": 3838,
      "territory": 3839,
      "bad": 3840,
      "fer": 3841,
      "living": 3842,
      "oce": 3843,
      "##ca": 3844,
      "##ga": 3845,
      "##ken": 3846,
      "##omes": 3847,
      "box": 3848,
      "science": 3849,
      "scott": 3850,
      "ended": 3851,
      "positive": 3852,
      "larg": 3853,
      "billboard": 3854,
      "frequ": 3855,
      "pressure": 3856,
      "mort": 3857,
      "money": 3858,
      "pun": 3859,
      "xen": 3860,
      "health": 3861,
      "finally": 3862,
      "books": 3863,
      "culture": 3864,
      "squadron": 3865,
      "##under": 3866,
      "##uals": 3867,
      "##ifa": 3868,
      "becoming": 3869,
      "charles": 3870,
      "temper": 3871,
      "ga": 3872,
      "haw": 3873,
      "hair": 3874,
      "mom": 3875,
      "##su": 3876,
      "##isc": 3877,
      "always": 3878,
      "shown": 3879,
      "provide": 3880,
      "headquar": 3881,
      "smaller": 3882,
      "ben": 3883,
      "fox": 3884,
      "got": 3885,
      "log": 3886,
      "##wor": 3887,
      "##oles": 3888,
      "trade": 3889,
      "1995": 3890,
      "temple": 3891,
      "discovered": 3892,
      "private": 3893,
      "75": 3894,
      "batter": 3895,
      "##hou": 3896,
      "##ining": 3897,
      "##uments": 3898,
      "minutes": 3899,
      "subject": 3900,
      "shortly": 3901,
      "gods": 3902,
      "bord": 3903,
      "jam": 3904,
      "nations": 3905,
      "##ii": 3906,
      "frank": 3907,
      "experience": 3908,
      "defeated": 3909,
      "dj": 3910,
      "pian": 3911,
      "tax": 3912,
      "##iest": 3913,
      "##key": 3914,
      "bowl": 3915,
      "subsequently": 3916,
      "##selves": 3917,
      "surface": 3918,
      "morn": 3919,
      "van": 3920,
      "##aded": 3921,
      "##ulted": 3922,
      "effects": 3923,
      "cele": 3924,
      "##aring": 3925,
      "##ishop": 3926,
      "##rael": 3927,
      "concert": 3928,
      "personal": 3929,
      "makes": 3930,
      "##eign": 3931,
      "unit": 3932,
      "greater": 3933,
      "calif": 3934,
      "counter": 3935,
      "scientology": 3936,
      "dyn": 3937,
      "pair": 3938,
      "##ault": 3939,
      "##zy": 3940,
      "intended": 3941,
      "##eless": 3942,
      "franc": 3943,
      "intell": 3944,
      "percent": 3945,
      "mostly": 3946,
      "teams": 3947,
      "favor": 3948,
      "idea": 3949,
      "problems": 3950,
      "hus": 3951,
      "master": 3952,
      "pil": 3953,
      "und": 3954,
      "##kan": 3955,
      "##idents": 3956,
      "learn": 3957,
      "numbers": 3958,
      "conclud": 3959,
      "collection": 3960,
      "keep": 3961,
      "captured": 3962,
      "galv": 3963,
      "largely": 3964,
      "coup": 3965,
      "fest": 3966,
      "wing": 3967,
      "##acted": 3968,
      "sev": 3969,
      "##pped": 3970,
      "themselves": 3971,
      "metres": 3972,
      "constant": 3973,
      "arrang": 3974,
      "valley": 3975,
      "market": 3976,
      "referred": 3977,
      "haifa": 3978,
      "primary": 3979,
      "machine": 3980,
      "queen": 3981,
      "likely": 3982,
      "californ": 3983,
      "russ": 3984,
      "sov": 3985,
      "tenn": 3986,
      "##well": 3987,
      "##ban": 3988,
      "##ams": 3989,
      "whole": 3990,
      "##ples": 3991,
      "method": 3992,
      "2016": 3993,
      "product": 3994,
      "croat": 3995,
      "cric": 3996,
      "ded": 3997,
      "gall": 3998,
      "yet": 3999,
      "##iva": 4000,
      "consist": 4001,
      "guard": 4002,
      "oppos": 4003,
      "traffic": 4004,
      "xenon": 4005,
      "cause": 4006,
      "ll": 4007,
      "om": 4008,
      "pow": 4009,
      "##lim": 4010,
      "##ror": 4011,
      "##iser": 4012,
      "israel": 4013,
      "location": 4014,
      "portug": 4015,
      "##uck": 4016,
      "entered": 4017,
      "tower": 4018,
      "aer": 4019,
      "bomb": 4020,
      "gi": 4021,
      "sand": 4022,
      "contains": 4023,
      "amount": 4024,
      "emer": 4025,
      "magn": 4026,
      "square": 4027,
      "ultim": 4028,
      "constructed": 4029,
      "fail": 4030,
      "jose": 4031,
      "##oor": 4032,
      "##ging": 4033,
      "##urs": 4034,
      "che": 4035,
      "adop": 4036,
      "script": 4037,
      "majority": 4038,
      "greatest": 4039,
      "listed": 4040,
      "ranked": 4041,
      "lyrics": 4042,
      "ocean": 4043,
      "headquarters": 4044,
      "morning": 4045,
      "ray": 4046,
      "anal": 4047,
      "chief": 4048,
      "leaving": 4049,
      "cann": 4050,
      "1999": 4051,
      "##ending": 4052,
      "starting": 4053,
      "dum": 4054,
      "kr": 4055,
      "ross": 4056,
      "##ds": 4057,
      "##gian": 4058,
      "##atively": 4059,
      "asp": 4060,
      "##ander": 4061,
      "##ria": 4062,
      "election": 4063,
      "studies": 4064,
      "officers": 4065,
      "whether": 4066,
      "information": 4067,
      "galveston": 4068,
      "fans": 4069,
      "gro": 4070,
      "os": 4071,
      "##mon": 4072,
      "##ergy": 4073,
      "tourn": 4074,
      "competition": 4075,
      "brief": 4076,
      "jewish": 4077,
      "companies": 4078,
      "##aut": 4079,
      "##essed": 4080,
      "##ously": 4081,
      "newsp": 4082,
      "color": 4083,
      "create": 4084,
      "fighting": 4085,
      "journal": 4086,
      "graph": 4087,
      "brad": 4088,
      "poly": 4089,
      "##gress": 4090,
      "##onym": 4091,
      "changed": 4092,
      "celebr": 4093,
      "33": 4094,
      "80": 4095,
      "##fact": 4096,
      "##atops": 4097,
      "beach": 4098,
      "forms": 4099,
      "theme": 4100,
      "publish": 4101,
      "episodes": 4102,
      "concern": 4103,
      "runs": 4104,
      "standard": 4105,
      "soldiers": 4106,
      "proposed": 4107,
      "administ": 4108,
      "lived": 4109,
      "liver": 4110,
      "ple": 4111,
      "takes": 4112,
      "##tar": 4113,
      "##pool": 4114,
      "##jected": 4115,
      "plans": 4116,
      "spir": 4117,
      "attr": 4118,
      "artist": 4119,
      "influence": 4120,
      "independent": 4121,
      "agreed": 4122,
      "launched": 4123,
      "committe": 4124,
      "2nd": 4125,
      "aw": 4126,
      "ale": 4127,
      "bud": 4128,
      "bound": 4129,
      "ce": 4130,
      "lif": 4131,
      "lady": 4132,
      "path": 4133,
      "rom": 4134,
      "##light": 4135,
      "##yr": 4136,
      "##urity": 4137,
      "##change": 4138,
      "ital": 4139,
      "##teen": 4140,
      "bring": 4141,
      "movement": 4142,
      "singles": 4143,
      "constit": 4144,
      "increase": 4145,
      "meaning": 4146,
      "current": 4147,
      "california": 4148,
      "cra": 4149,
      "##rison": 4150,
      "##isions": 4151,
      "##outh": 4152,
      "shoot": 4153,
      "##illery": 4154,
      "compared": 4155,
      "##lands": 4156,
      "care": 4157,
      "assigned": 4158,
      "minute": 4159,
      "catholic": 4160,
      "traditional": 4161,
      "quickly": 4162,
      "here": 4163,
      "rat": 4164,
      "##bed": 4165,
      "##mas": 4166,
      "rein": 4167,
      "##andon": 4168,
      "true": 4169,
      "meant": 4170,
      "revolution": 4171,
      "artillery": 4172,
      "sixth": 4173,
      "determ": 4174,
      "villa": 4175,
      "trees": 4176,
      "double": 4177,
      "occurred": 4178,
      "chicago": 4179,
      "400": 4180,
      "ut": 4181,
      "##yc": 4182,
      "things": 4183,
      "##icated": 4184,
      "leave": 4185,
      "ens": 4186,
      "env": 4187,
      "corps": 4188,
      "inside": 4189,
      "refl": 4190,
      "focus": 4191,
      "hospital": 4192,
      "32": 4193,
      "fol": 4194,
      "latin": 4195,
      "nix": 4196,
      "##umn": 4197,
      "adult": 4198,
      "serious": 4199,
      "phot": 4200,
      "appears": 4201,
      "services": 4202,
      "archit": 4203,
      "victor": 4204,
      "speed": 4205,
      "defeat": 4206,
      "destroyed": 4207,
      "condoms": 4208,
      "investig": 4209,
      "done": 4210,
      "horn": 4211,
      "kick": 4212,
      "tons": 4213,
      "##ba": 4214,
      "sched": 4215,
      "longer": 4216,
      "schools": 4217,
      "consider": 4218,
      "contemporary": 4219,
      "bul": 4220,
      "hund": 4221,
      "mas": 4222,
      "##tained": 4223,
      "##iny": 4224,
      "##anced": 4225,
      "##oms": 4226,
      "asked": 4227,
      "alice": 4228,
      "##ortun": 4229,
      "scot": 4230,
      "finish": 4231,
      "acqu": 4232,
      "complex": 4233,
      "awarded": 4234,
      "source": 4235,
      "hundred": 4236,
      "cand": 4237,
      "fow": 4238,
      "gh": 4239,
      "pit": 4240,
      "purch": 4241,
      "beat": 4242,
      "carried": 4243,
      "access": 4244,
      "something": 4245,
      "polish": 4246,
      "sky": 4247,
      "initial": 4248,
      "proteins": 4249,
      "rapid": 4250,
      "cyclone": 4251,
      "daughter": 4252,
      "300": 4253,
      "cold": 4254,
      "ign": 4255,
      "marriage": 4256,
      "dism": 4257,
      "flow": 4258,
      "1998": 4259,
      "ending": 4260,
      "writers": 4261,
      "brother": 4262,
      "buildings": 4263,
      "conducted": 4264,
      "princip": 4265,
      "ott": 4266,
      "70": 4267,
      "thick": 4268,
      "alkan": 4269,
      "simp": 4270,
      "district": 4271,
      "annual": 4272,
      "associated": 4273,
      "status": 4274,
      "burns": 4275,
      "ancient": 4276,
      "twenty": 4277,
      "fant": 4278,
      "ram": 4279,
      "sav": 4280,
      "##ev": 4281,
      "##eas": 4282,
      "throw": 4283,
      "chall": 4284,
      "##osph": 4285,
      "image": 4286,
      "minister": 4287,
      "african": 4288,
      "empire": 4289,
      "ess": 4290,
      "##oo": 4291,
      "##itation": 4292,
      "##itude": 4293,
      "conference": 4294,
      "chem": 4295,
      "unable": 4296,
      "married": 4297,
      "conserv": 4298,
      "1993": 4299,
      "albums": 4300,
      "commented": 4301,
      "husband": 4302,
      "bank": 4303,
      "dail": 4304,
      "tay": 4305,
      "##ex": 4306,
      "##anas": 4307,
      "spring": 4308,
      "imag": 4309,
      "numerous": 4310,
      "castle": 4311,
      "individual": 4312,
      "scenes": 4313,
      "liverpool": 4314,
      "nixon": 4315,
      "1st": 4316,
      "dra": 4317,
      "habit": 4318,
      "ow": 4319,
      "##kel": 4320,
      "##itor": 4321,
      "chann": 4322,
      "accomp": 4323,
      "positions": 4324,
      "crown": 4325,
      "somers": 4326,
      "producer": 4327,
      "inspired": 4328,
      "47": 4329,
      "##istics": 4330,
      "texas": 4331,
      "##ologist": 4332,
      "polic": 4333,
      "##itting": 4334,
      "tracks": 4335,
      "management": 4336,
      "##aught": 4337,
      "39": 4338,
      "pul": 4339,
      "##pre": 4340,
      "terms": 4341,
      "attacks": 4342,
      "issued": 4343,
      "mosley": 4344,
      "somerset": 4345,
      "bed": 4346,
      "##anta": 4347,
      "earned": 4348,
      "defense": 4349,
      "slight": 4350,
      "safe": 4351,
      "begins": 4352,
      "waters": 4353,
      "piano": 4354,
      "bon": 4355,
      "bol": 4356,
      "bid": 4357,
      "fear": 4358,
      "giving": 4359,
      "##her": 4360,
      "##urg": 4361,
      "20th": 4362,
      "planned": 4363,
      "scr": 4364,
      "marked": 4365,
      "actor": 4366,
      "1996": 4367,
      "portray": 4368,
      "directly": 4369,
      "variety": 4370,
      "edge": 4371,
      "busch": 4372,
      "figure": 4373,
      "document": 4374,
      "baby": 4375,
      "daily": 4376,
      "pick": 4377,
      "pict": 4378,
      "via": 4379,
      "your": 4380,
      "yellow": 4381,
      "##ding": 4382,
      "thunder": 4383,
      "##ands": 4384,
      "search": 4385,
      "##alled": 4386,
      "recover": 4387,
      "performances": 4388,
      "##ylv": 4389,
      "advent": 4390,
      "occasion": 4391,
      "christmas": 4392,
      "experi": 4393,
      "historical": 4394,
      "nuclear": 4395,
      "immediately": 4396,
      "committee": 4397,
      "swe": 4398,
      "##umed": 4399,
      "perfect": 4400,
      "drum": 4401,
      "metal": 4402,
      "organization": 4403,
      "spanish": 4404,
      "soviet": 4405,
      "taylor": 4406,
      "fell": 4407,
      "kind": 4408,
      "##house": 4409,
      "##bery": 4410,
      "abandon": 4411,
      "disapp": 4412,
      "##ension": 4413,
      "transl": 4414,
      "helped": 4415,
      "combat": 4416,
      "fowler": 4417,
      "90": 4418,
      "wound": 4419,
      "##rical": 4420,
      "thir": 4421,
      "##rovers": 4422,
      "rear": 4423,
      "closed": 4424,
      "financ": 4425,
      "leaders": 4426,
      "casual": 4427,
      "suffered": 4428,
      "rhy": 4429,
      "multip": 4430,
      "screen": 4431,
      "42": 4432,
      "gard": 4433,
      "mic": 4434,
      "nation": 4435,
      "##bury": 4436,
      "##cend": 4437,
      "suc": 4438,
      "##ocr": 4439,
      "controvers": 4440,
      "uses": 4441,
      "presence": 4442,
      "crow": 4443,
      "nearby": 4444,
      "impact": 4445,
      "##like": 4446,
      "bass": 4447,
      "bond": 4448,
      "jane": 4449,
      "mol": 4450,
      "row": 4451,
      "##joy": 4452,
      "##once": 4453,
      "stad": 4454,
      "really": 4455,
      "##ify": 4456,
      "##athan": 4457,
      "##ibly": 4458,
      "peace": 4459,
      "mission": 4460,
      "raised": 4461,
      "presented": 4462,
      "federal": 4463,
      "cultural": 4464,
      "susp": 4465,
      "paper": 4466,
      "rif": 4467,
      "sir": 4468,
      "##anded": 4469,
      "##essa": 4470,
      "weap": 4471,
      "prec": 4472,
      "paris": 4473,
      "maxim": 4474,
      "continue": 4475,
      "covered": 4476,
      "vocals": 4477,
      "rule": 4478,
      "diam": 4479,
      "mun": 4480,
      "##sylv": 4481,
      "##erve": 4482,
      "##olf": 4483,
      "fruit": 4484,
      "sport": 4485,
      "composed": 4486,
      "##aha": 4487,
      "attempts": 4488,
      "hands": 4489,
      "figures": 4490,
      "symb": 4491,
      "carolina": 4492,
      "pennsylv": 4493,
      "virginia": 4494,
      "link": 4495,
      "mis": 4496,
      "extended": 4497,
      "incor": 4498,
      "below": 4499,
      "##iami": 4500,
      "course": 4501,
      "##chester": 4502,
      "beyonce": 4503,
      "rough": 4504,
      "sac": 4505,
      "##imony": 4506,
      "attend": 4507,
      "plant": 4508,
      "relief": 4509,
      "##rupt": 4510,
      "dise": 4511,
      "meyer": 4512,
      "canc": 4513,
      "block": 4514,
      "officer": 4515,
      "purp": 4516,
      "selected": 4517,
      "vocal": 4518,
      "bodies": 4519,
      "assembly": 4520,
      "##standing": 4521,
      "architect": 4522,
      "fill": 4523,
      "mile": 4524,
      "ton": 4525,
      "##icted": 4526,
      "wash": 4527,
      "ash": 4528,
      "shar": 4529,
      "deg": 4530,
      "##apo": 4531,
      "promin": 4532,
      "sports": 4533,
      "enjoy": 4534,
      "higher": 4535,
      "1997": 4536,
      "appearances": 4537,
      "hyd": 4538,
      "cricket": 4539,
      "hour": 4540,
      "miami": 4541,
      "ris": 4542,
      "##uing": 4543,
      "##ental": 4544,
      "##uries": 4545,
      "offensive": 4546,
      "text": 4547,
      "countries": 4548,
      "advance": 4549,
      "extre": 4550,
      "germany": 4551,
      "promotion": 4552,
      "##ipped": 4553,
      "needed": 4554,
      "protein": 4555,
      "sexual": 4556,
      "necess": 4557,
      "44": 4558,
      "nico": 4559,
      "rush": 4560,
      "##ires": 4561,
      "altern": 4562,
      "shr": 4563,
      "places": 4564,
      "arts": 4565,
      "compl": 4566,
      "highly": 4567,
      "powerful": 4568,
      "situation": 4569,
      "veh": 4570,
      "cadm": 4571,
      "analys": 4572,
      "cab": 4573,
      "fair": 4574,
      "kak": 4575,
      "lock": 4576,
      "##ils": 4577,
      "##aging": 4578,
      "##overs": 4579,
      "recent": 4580,
      "clim": 4581,
      "bob": 4582,
      "emper": 4583,
      "distance": 4584,
      "edition": 4585,
      "attacked": 4586,
      "allowing": 4587,
      "entertain": 4588,
      "somal": 4589,
      "silver": 4590,
      "comedy": 4591,
      "festival": 4592,
      "da": 4593,
      "ka": 4594,
      "rate": 4595,
      "tel": 4596,
      "##ny": 4597,
      "##iate": 4598,
      "##gal": 4599,
      "##he": 4600,
      "##vement": 4601,
      "##pa": 4602,
      "##pole": 4603,
      "inters": 4604,
      "##ribution": 4605,
      "singer": 4606,
      "opera": 4607,
      "governor": 4608,
      "confir": 4609,
      "labor": 4610,
      "theatre": 4611,
      "pennsylvania": 4612,
      "cadmium": 4613,
      "##isation": 4614,
      "foreign": 4615,
      "##aped": 4616,
      "energy": 4617,
      "resc": 4618,
      "northwest": 4619,
      "movie": 4620,
      "advant": 4621,
      "model": 4622,
      "jackson": 4623,
      "widely": 4624,
      "academy": 4625,
      "removed": 4626,
      "##track": 4627,
      "51": 4628,
      "bor": 4629,
      "bene": 4630,
      "jim": 4631,
      "lot": 4632,
      "##rate": 4633,
      "##ication": 4634,
      "prince": 4635,
      "##ovic": 4636,
      "compr": 4637,
      "means": 4638,
      "offered": 4639,
      "active": 4640,
      "remix": 4641,
      "genus": 4642,
      "protest": 4643,
      "levels": 4644,
      "soundtrack": 4645,
      "copies": 4646,
      "peaked": 4647,
      "scotland": 4648,
      "rout": 4649,
      "wa": 4650,
      "thous": 4651,
      "sha": 4652,
      "scoring": 4653,
      "182": 4654,
      "##izing": 4655,
      "1991": 4656,
      "doct": 4657,
      "chris": 4658,
      "typically": 4659,
      "attempted": 4660,
      "opportun": 4661,
      "combined": 4662,
      "meeting": 4663,
      "respectively": 4664,
      "question": 4665,
      "mess": 4666,
      "sister": 4667,
      "wear": 4668,
      "##hood": 4669,
      "##ros": 4670,
      "reform": 4671,
      "china": 4672,
      "peron": 4673,
      "branch": 4674,
      "musc": 4675,
      "themes": 4676,
      "responsible": 4677,
      "touchdown": 4678,
      "alex": 4679,
      "envir": 4680,
      "stadium": 4681,
      "fast": 4682,
      "lu": 4683,
      "##anz": 4684,
      "anderson": 4685,
      "##ado": 4686,
      "##aven": 4687,
      "##rie": 4688,
      "##abor": 4689,
      "##send": 4690,
      "emb": 4691,
      "dress": 4692,
      "sets": 4693,
      "famil": 4694,
      "describes": 4695,
      "islands": 4696,
      "observed": 4697,
      "activities": 4698,
      "candid": 4699,
      "dun": 4700,
      "sales": 4701,
      "##gs": 4702,
      "##tered": 4703,
      "reign": 4704,
      "appar": 4705,
      "formation": 4706,
      "1992": 4707,
      "winter": 4708,
      "smith": 4709,
      "instr": 4710,
      "heavily": 4711,
      "matches": 4712,
      "audience": 4713,
      "braath": 4714,
      "houses": 4715,
      "vehic": 4716,
      "kakapo": 4717,
      "dream": 4718,
      "lie": 4719,
      "##lict": 4720,
      "##anes": 4721,
      "stra": 4722,
      "parents": 4723,
      "1994": 4724,
      "entr": 4725,
      "rights": 4726,
      "activity": 4727,
      "looking": 4728,
      "reduced": 4729,
      "37": 4730,
      "48": 4731,
      "76": 4732,
      "wave": 4733,
      "##ha": 4734,
      "##isa": 4735,
      "chronic": 4736,
      "##ulations": 4737,
      "resulted": 4738,
      "carry": 4739,
      "minnes": 4740,
      "northeast": 4741,
      "quality": 4742,
      "defence": 4743,
      "armed": 4744,
      "respond": 4745,
      "glob": 4746,
      "domest": 4747,
      "concluded": 4748,
      "minnesota": 4749,
      "mech": 4750,
      "##uated": 4751,
      "##ican": 4752,
      "stating": 4753,
      "##ems": 4754,
      "residents": 4755,
      "calling": 4756,
      "townsend": 4757,
      "reports": 4758,
      "extr": 4759,
      "contrast": 4760,
      "conditions": 4761,
      "completely": 4762,
      "hawai": 4763,
      "spirit": 4764,
      "italian": 4765,
      "channel": 4766,
      "environ": 4767,
      "3rd": 4768,
      "et": 4769,
      "jul": 4770,
      "##bre": 4771,
      "##inal": 4772,
      "##isl": 4773,
      "##ura": 4774,
      "##utions": 4775,
      "##rial": 4776,
      "managed": 4777,
      "##athus": 4778,
      "featuring": 4779,
      "efforts": 4780,
      "europ": 4781,
      "separate": 4782,
      "rosebery": 4783,
      "kilomet": 4784,
      "revealed": 4785,
      "intellig": 4786,
      "folk": 4787,
      "bh": 4788,
      "overs": 4789,
      "tun": 4790,
      "##beer": 4791,
      "##hold": 4792,
      "##ented": 4793,
      "shiva": 4794,
      "##ift": 4795,
      "##ella": 4796,
      "clar": 4797,
      "##ogue": 4798,
      "plays": 4799,
      "finals": 4800,
      "liber": 4801,
      "specim": 4802,
      "artists": 4803,
      "description": 4804,
      "refused": 4805,
      "progress": 4806,
      "declared": 4807,
      "honor": 4808,
      "eye": 4809,
      "meyerbeer": 4810,
      "hors": 4811,
      "lib": 4812,
      "sle": 4813,
      "##bird": 4814,
      "##esb": 4815,
      "##ays": 4816,
      "webs": 4817,
      "finkel": 4818,
      "therefore": 4819,
      "1970": 4820,
      "issues": 4821,
      "walpole": 4822,
      "survey": 4823,
      "independence": 4824,
      "strugg": 4825,
      "finkelstein": 4826,
      "52": 4827,
      "categ": 4828,
      "fat": 4829,
      "tessa": 4830,
      "yue": 4831,
      "##atives": 4832,
      "##ingu": 4833,
      "alle": 4834,
      "##emic": 4835,
      "coming": 4836,
      "##essions": 4837,
      "sust": 4838,
      "offer": 4839,
      "security": 4840,
      "seasons": 4841,
      "150": 4842,
      "expected": 4843,
      "titles": 4844,
      "elev": 4845,
      "legisl": 4846,
      "naval": 4847,
      "casualties": 4848,
      "emperor": 4849,
      "sr": 4850,
      "sense": 4851,
      "##iro": 4852,
      "##stone": 4853,
      "##road": 4854,
      "grass": 4855,
      "weaken": 4856,
      "actions": 4857,
      "charl": 4858,
      "mainly": 4859,
      "##apped": 4860,
      "types": 4861,
      "hait": 4862,
      "illino": 4863,
      "words": 4864,
      "border": 4865,
      "ottoman": 4866,
      "nicole": 4867,
      "ec": 4868,
      "nest": 4869,
      "push": 4870,
      "##hl": 4871,
      "scale": 4872,
      "manu": 4873,
      "becomes": 4874,
      "weather": 4875,
      "attention": 4876,
      "actually": 4877,
      "job": 4878,
      "assault": 4879,
      "demonst": 4880,
      "behav": 4881,
      "illust": 4882,
      "excav": 4883,
      "practice": 4884,
      "34": 4885,
      "core": 4886,
      "ros": 4887,
      "sor": 4888,
      "##icip": 4889,
      "##use": 4890,
      "##ulpt": 4891,
      "neigh": 4892,
      "spect": 4893,
      "recomm": 4894,
      "sculpt": 4895,
      "struck": 4896,
      "tournament": 4897,
      "reinfor": 4898,
      "braathens": 4899,
      "dog": 4900,
      "dang": 4901,
      "lb": 4902,
      "luc": 4903,
      "ps": 4904,
      "roles": 4905,
      "##lers": 4906,
      "##iber": 4907,
      "advert": 4908,
      "actress": 4909,
      "write": 4910,
      "columb": 4911,
      "legal": 4912,
      "viewers": 4913,
      "primarily": 4914,
      "letters": 4915,
      "hotel": 4916,
      "vietnam": 4917,
      "ultimately": 4918,
      "entertainment": 4919,
      "manufact": 4920,
      "bishop": 4921,
      "mog": 4922,
      "rug": 4923,
      "##ek": 4924,
      "##met": 4925,
      "##era": 4926,
      "##onents": 4927,
      "##room": 4928,
      "alone": 4929,
      "cong": 4930,
      "1990": 4931,
      "termin": 4932,
      "johnson": 4933,
      "planet": 4934,
      "accepted": 4935,
      "achieved": 4936,
      "sequence": 4937,
      "portugues": 4938,
      "cannot": 4939,
      "bott": 4940,
      "fully": 4941,
      "tree": 4942,
      "##rid": 4943,
      "##enue": 4944,
      "##alty": 4945,
      "react": 4946,
      "##essor": 4947,
      "elected": 4948,
      "qual": 4949,
      "colony": 4950,
      "foundation": 4951,
      "distinct": 4952,
      "farm": 4953,
      "authority": 4954,
      "rainfall": 4955,
      "newspaper": 4956,
      "portuguese": 4957,
      "dur": 4958,
      "mob": 4959,
      "nick": 4960,
      "tint": 4961,
      "##rain": 4962,
      "##sen": 4963,
      "##jo": 4964,
      "##ano": 4965,
      "##asy": 4966,
      "step": 4967,
      "chair": 4968,
      "##berg": 4969,
      "prison": 4970,
      "spain": 4971,
      "spread": 4972,
      "apple": 4973,
      "181": 4974,
      "workers": 4975,
      "##ledge": 4976,
      "##elsh": 4977,
      "alongside": 4978,
      "exped": 4979,
      "antimony": 4980,
      "authorities": 4981,
      "khan": 4982,
      "flooding": 4983,
      "measure": 4984,
      "moment": 4985,
      "slightly": 4986,
      "incorpor": 4987,
      "es": 4988,
      "hers": 4989,
      "mu": 4990,
      "pound": 4991,
      "ridge": 4992,
      "##mond": 4993,
      "tru": 4994,
      "##eller": 4995,
      "broken": 4996,
      "1986": 4997,
      "owned": 4998,
      "battery": 4999,
      "data": 5000,
      "males": 5001,
      "sarn": 5002,
      "welsh": 5003,
      "##lies": 5004,
      "##aen": 5005,
      "##bon": 5006,
      "inches": 5007,
      "##oper": 5008,
      "orb": 5009,
      "computer": 5010,
      "twice": 5011,
      "perman": 5012,
      "fey": 5013,
      "defensive": 5014,
      "surre": 5015,
      "artic": 5016,
      "concent": 5017,
      "campus": 5018,
      "conflict": 5019,
      "skin": 5020,
      "standing": 5021,
      "affected": 5022,
      "journey": 5023,
      "##ceeded": 5024,
      "expressed": 5025,
      "murder": 5026,
      "##onymous": 5027,
      "domestic": 5028,
      "mechan": 5029,
      "tintin": 5030,
      "aid": 5031,
      "bull": 5032,
      "nesb": 5033,
      "zhou": 5034,
      "##uff": 5035,
      "##cript": 5036,
      "##ims": 5037,
      "height": 5038,
      "compar": 5039,
      "180": 5040,
      "battles": 5041,
      "showed": 5042,
      "titled": 5043,
      "convers": 5044,
      "historic": 5045,
      "doub": 5046,
      "officials": 5047,
      "apart": 5048,
      "ceres": 5049,
      "flying": 5050,
      "physical": 5051,
      "louis": 5052,
      "disease": 5053,
      "rid": 5054,
      "ta": 5055,
      "wed": 5056,
      "##ych": 5057,
      "##kh": 5058,
      "##ena": 5059,
      "andrew": 5060,
      "toward": 5061,
      "##uled": 5062,
      "neut": 5063,
      "spot": 5064,
      "##astic": 5065,
      "ability": 5066,
      "direction": 5067,
      "barrow": 5068,
      "varanas": 5069,
      "avoid": 5070,
      "deliv": 5071,
      "cerem": 5072,
      "environment": 5073,
      "varanasi": 5074,
      "dv": 5075,
      "kar": 5076,
      "##bl": 5077,
      "##ka": 5078,
      "##kin": 5079,
      "##enant": 5080,
      "##igan": 5081,
      "##rian": 5082,
      "cook": 5083,
      "tend": 5084,
      "says": 5085,
      "influenced": 5086,
      "odaen": 5087,
      "snow": 5088,
      "angeles": 5089,
      "mentioned": 5090,
      "nesbitt": 5091,
      "49": 5092,
      "lives": 5093,
      "sides": 5094,
      "##cing": 5095,
      "##hel": 5096,
      "##ols": 5097,
      "eva": 5098,
      "acting": 5099,
      "produce": 5100,
      "continues": 5101,
      "##while": 5102,
      "propos": 5103,
      "earliest": 5104,
      "sites": 5105,
      "narrow": 5106,
      "encour": 5107,
      "individuals": 5108,
      "composition": 5109,
      "dumont": 5110,
      "financial": 5111,
      "advantage": 5112,
      "illinois": 5113,
      "odaenathus": 5114,
      "cities": 5115,
      "din": 5116,
      "jump": 5117,
      "oil": 5118,
      "##ya": 5119,
      "##onna": 5120,
      "alab": 5121,
      "##illa": 5122,
      "else": 5123,
      "singing": 5124,
      "founded": 5125,
      "lands": 5126,
      "##ancy": 5127,
      "resulting": 5128,
      "torped": 5129,
      "engineer": 5130,
      "admir": 5131,
      "digital": 5132,
      "exhib": 5133,
      "olympic": 5134,
      "adopted": 5135,
      "mogad": 5136,
      "sarnia": 5137,
      "torpedo": 5138,
      "65": 5139,
      "cin": 5140,
      "hope": 5141,
      "executive": 5142,
      "appeal": 5143,
      "studios": 5144,
      "officially": 5145,
      "basis": 5146,
      "represented": 5147,
      "equip": 5148,
      "sources": 5149,
      "potential": 5150,
      "withdraw": 5151,
      "dedicated": 5152,
      "analysis": 5153,
      "cit": 5154,
      "##oud": 5155,
      "contain": 5156,
      "manchester": 5157,
      "agric": 5158,
      "doing": 5159,
      "capture": 5160,
      "pattern": 5161,
      "chapel": 5162,
      "losing": 5163,
      "wilhel": 5164,
      "surrounding": 5165,
      "scholars": 5166,
      "thunderbird": 5167,
      "dance": 5168,
      "faced": 5169,
      "vic": 5170,
      "vess": 5171,
      "##lings": 5172,
      "##rane": 5173,
      "##writ": 5174,
      "##aming": 5175,
      "spl": 5176,
      "note": 5177,
      "boat": 5178,
      "relatively": 5179,
      "18th": 5180,
      "emph": 5181,
      "drive": 5182,
      "student": 5183,
      "medical": 5184,
      "effort": 5185,
      "extra": 5186,
      "require": 5187,
      "letter": 5188,
      "transferred": 5189,
      "maximum": 5190,
      "washington": 5191,
      "gang": 5192,
      "kg": 5193,
      "##een": 5194,
      "##tv": 5195,
      "##bour": 5196,
      "frag": 5197,
      "attended": 5198,
      "chor": 5199,
      "##ulate": 5200,
      "##odon": 5201,
      "##ills": 5202,
      "unlike": 5203,
      "##iana": 5204,
      "compound": 5205,
      "feed": 5206,
      "1988": 5207,
      "older": 5208,
      "tried": 5209,
      "organized": 5210,
      "clean": 5211,
      "function": 5212,
      "females": 5213,
      "freeway": 5214,
      "piece": 5215,
      "agricult": 5216,
      "eat": 5217,
      "rod": 5218,
      "##kare": 5219,
      "##rect": 5220,
      "##eck": 5221,
      "##adel": 5222,
      "conver": 5223,
      "proved": 5224,
      "##ishu": 5225,
      "##gend": 5226,
      "notable": 5227,
      "imper": 5228,
      "charge": 5229,
      "opin": 5230,
      "helms": 5231,
      "element": 5232,
      "golden": 5233,
      "meanwhile": 5234,
      "beyond": 5235,
      "target": 5236,
      "omaha": 5237,
      "joseph": 5238,
      "alabama": 5239,
      "46": 5240,
      "64": 5241,
      "die": 5242,
      "eth": 5243,
      "kent": 5244,
      "##uous": 5245,
      "shape": 5246,
      "##umber": 5247,
      "##ogen": 5248,
      "images": 5249,
      "flag": 5250,
      "divided": 5251,
      "edward": 5252,
      "designated": 5253,
      "possibly": 5254,
      "believe": 5255,
      "baseball": 5256,
      "animal": 5257,
      "archaeological": 5258,
      "literature": 5259,
      "intensity": 5260,
      "determined": 5261,
      "cust": 5262,
      "cub": 5263,
      "dar": 5264,
      "draft": 5265,
      "rar": 5266,
      "##iations": 5267,
      "##wide": 5268,
      "##ta": 5269,
      "##itness": 5270,
      "plum": 5271,
      "prime": 5272,
      "##izes": 5273,
      "weight": 5274,
      "follows": 5275,
      "1960s": 5276,
      "repe": 5277,
      "trip": 5278,
      "results": 5279,
      "charts": 5280,
      "paid": 5281,
      "argent": 5282,
      "innis": 5283,
      "institute": 5284,
      "dissip": 5285,
      "mogadishu": 5286,
      "fix": 5287,
      "md": 5288,
      "mouth": 5289,
      "sens": 5290,
      "ingr": 5291,
      "##station": 5292,
      "unkn": 5293,
      "content": 5294,
      "arms": 5295,
      "creation": 5296,
      "1980s": 5297,
      "1940": 5298,
      "1964": 5299,
      "returning": 5300,
      "supporting": 5301,
      "restaur": 5302,
      "visual": 5303,
      "solo": 5304,
      "historian": 5305,
      "structures": 5306,
      "homes": 5307,
      "treaty": 5308,
      "mccall": 5309,
      "simply": 5310,
      "wilhelm": 5311,
      "emphas": 5312,
      "iv": 5313,
      "jup": 5314,
      "kore": 5315,
      "pine": 5316,
      "paint": 5317,
      "rit": 5318,
      "sis": 5319,
      "##lied": 5320,
      "##ero": 5321,
      "onto": 5322,
      "reaction": 5323,
      "##otes": 5324,
      "##osh": 5325,
      "##agan": 5326,
      "underground": 5327,
      "mind": 5328,
      "portion": 5329,
      "kept": 5330,
      "importance": 5331,
      "projects": 5332,
      "purs": 5333,
      "technology": 5334,
      "knowledge": 5335,
      "growing": 5336,
      "secretary": 5337,
      "economic": 5338,
      "couple": 5339,
      "entrance": 5340,
      "rugby": 5341,
      "equipment": 5342,
      "lane": 5343,
      "rare": 5344,
      "##wise": 5345,
      "##urb": 5346,
      "##ety": 5347,
      "##ette": 5348,
      "chos": 5349,
      "deploy": 5350,
      "legend": 5351,
      "perm": 5352,
      "playstation": 5353,
      "filming": 5354,
      "depth": 5355,
      "leader": 5356,
      "grew": 5357,
      "weekly": 5358,
      "##where": 5359,
      "argued": 5360,
      "railway": 5361,
      "55": 5362,
      "53": 5363,
      "au": 5364,
      "eag": 5365,
      "rise": 5366,
      "rih": 5367,
      "##oe": 5368,
      "share": 5369,
      "##istry": 5370,
      "##asty": 5371,
      "weak": 5372,
      "flu": 5373,
      "miner": 5374,
      "guest": 5375,
      "landing": 5376,
      "publication": 5377,
      "suggests": 5378,
      "criticism": 5379,
      "hamels": 5380,
      "buried": 5381,
      "currently": 5382,
      "##timore": 5383,
      "baltimore": 5384,
      "website": 5385,
      "rihanna": 5386,
      "gained": 5387,
      "les": 5388,
      "tact": 5389,
      "##mes": 5390,
      "##esis": 5391,
      "##acement": 5392,
      "lew": 5393,
      "coal": 5394,
      "belong": 5395,
      "advanced": 5396,
      "causing": 5397,
      "reference": 5398,
      "palest": 5399,
      "criticized": 5400,
      "orders": 5401,
      "label": 5402,
      "volume": 5403,
      "religion": 5404,
      "escape": 5405,
      "synth": 5406,
      "breeding": 5407,
      "djed": 5408,
      "jupiter": 5409,
      "56": 5410,
      "5th": 5411,
      "ba": 5412,
      "ib": 5413,
      "math": 5414,
      "oh": 5415,
      "##rative": 5416,
      "##ez": 5417,
      "##fl": 5418,
      "##eratops": 5419,
      "##edar": 5420,
      "inch": 5421,
      "stock": 5422,
      "##irt": 5423,
      "adj": 5424,
      "containing": 5425,
      "newly": 5426,
      "##prise": 5427,
      "democr": 5428,
      "reaching": 5429,
      "debuted": 5430,
      "claims": 5431,
      "property": 5432,
      "dismiss": 5433,
      "abandoned": 5434,
      "multiple": 5435,
      "micro": 5436,
      "prominent": 5437,
      "horses": 5438,
      "djedkare": 5439,
      "bru": 5440,
      "hib": 5441,
      "outer": 5442,
      "##och": 5443,
      "##vin": 5444,
      "##po": 5445,
      "theory": 5446,
      "##orter": 5447,
      "beaut": 5448,
      "shel": 5449,
      "excl": 5450,
      "enemy": 5451,
      "column": 5452,
      "defin": 5453,
      "defend": 5454,
      "1947": 5455,
      "glass": 5456,
      "personnel": 5457,
      "torres": 5458,
      "volun": 5459,
      "encoun": 5460,
      "faith": 5461,
      "administration": 5462,
      "chosen": 5463,
      "43": 5464,
      "ahead": 5465,
      "bell": 5466,
      "jon": 5467,
      "kings": 5468,
      "mut": 5469,
      "##ati": 5470,
      "##enge": 5471,
      "rejected": 5472,
      "##osoph": 5473,
      "try": 5474,
      "trou": 5475,
      "##ached": 5476,
      "consecutive": 5477,
      "120": 5478,
      "youth": 5479,
      "cases": 5480,
      "favour": 5481,
      "strike": 5482,
      "cells": 5483,
      "seems": 5484,
      "granted": 5485,
      "molec": 5486,
      "unknown": 5487,
      "cart": 5488,
      "igu": 5489,
      "ry": 5490,
      "atm": 5491,
      "deities": 5492,
      "secondary": 5493,
      "dram": 5494,
      "1941": 5495,
      "visited": 5496,
      "commonly": 5497,
      "##white": 5498,
      "settlement": 5499,
      "condition": 5500,
      "chapter": 5501,
      "increasingly": 5502,
      "scottish": 5503,
      "francis": 5504,
      "crazy": 5505,
      "straight": 5506,
      "applewhite": 5507,
      "bc": 5508,
      "bbc": 5509,
      "haven": 5510,
      "##la": 5511,
      "##lam": 5512,
      "##more": 5513,
      "anonymous": 5514,
      "unf": 5515,
      "train": 5516,
      "truth": 5517,
      "##phia": 5518,
      "regions": 5519,
      "max": 5520,
      "seconds": 5521,
      "broke": 5522,
      "address": 5523,
      "1987": 5524,
      "barb": 5525,
      "##azz": 5526,
      "passing": 5527,
      "towns": 5528,
      "systems": 5529,
      "versions": 5530,
      "request": 5531,
      "growth": 5532,
      "identified": 5533,
      "problem": 5534,
      "nominated": 5535,
      "senior": 5536,
      "temperature": 5537,
      "wounded": 5538,
      "risk": 5539,
      "dvd": 5540,
      "##adelphia": 5541,
      "atmosph": 5542,
      "41": 5543,
      "bat": 5544,
      "greek": 5545,
      "hart": 5546,
      "kir": 5547,
      "ring": 5548,
      "rac": 5549,
      "save": 5550,
      "##dh": 5551,
      "thing": 5552,
      "##ala": 5553,
      "congress": 5554,
      "sud": 5555,
      "unique": 5556,
      "trust": 5557,
      "operated": 5558,
      "1970s": 5559,
      "promoted": 5560,
      "killing": 5561,
      "philosoph": 5562,
      "egyptian": 5563,
      "fantasy": 5564,
      "9th": 5565,
      "cry": 5566,
      "dw": 5567,
      "fame": 5568,
      "fash": 5569,
      "opt": 5570,
      "rub": 5571,
      "selling": 5572,
      "##lines": 5573,
      "##iant": 5574,
      "##ike": 5575,
      "##mun": 5576,
      "##ads": 5577,
      "stations": 5578,
      "fired": 5579,
      "applic": 5580,
      "nothing": 5581,
      "colour": 5582,
      "aired": 5583,
      "slam": 5584,
      "1989": 5585,
      "1984": 5586,
      "famous": 5587,
      "1972": 5588,
      "roads": 5589,
      "opposed": 5590,
      "mike": 5591,
      "ode": 5592,
      "agreement": 5593,
      "memorial": 5594,
      "urban": 5595,
      "premier": 5596,
      "motor": 5597,
      "croatia": 5598,
      "accompan": 5599,
      "4th": 5600,
      "54": 5601,
      "bern": 5602,
      "camb": 5603,
      "hyp": 5604,
      "mig": 5605,
      "tell": 5606,
      "##nest": 5607,
      "##iced": 5608,
      "##aine": 5609,
      "##ighth": 5610,
      "##abb": 5611,
      "arc": 5612,
      "##ordin": 5613,
      "serve": 5614,
      "cool": 5615,
      "##rick": 5616,
      "1985": 5617,
      "repair": 5618,
      "raid": 5619,
      "swed": 5620,
      "controlled": 5621,
      "biograph": 5622,
      "virt": 5623,
      "animals": 5624,
      "choice": 5625,
      "ai": 5626,
      "ari": 5627,
      "hms": 5628,
      "mand": 5629,
      "none": 5630,
      "sin": 5631,
      "tan": 5632,
      "tail": 5633,
      "vert": 5634,
      "##asc": 5635,
      "##rey": 5636,
      "##stream": 5637,
      "stan": 5638,
      "sund": 5639,
      "##ips": 5640,
      "boats": 5641,
      "contact": 5642,
      "gram": 5643,
      "reserv": 5644,
      "interchange": 5645,
      "indu": 5646,
      "filmed": 5647,
      "writes": 5648,
      "drama": 5649,
      "1960": 5650,
      "myth": 5651,
      "explained": 5652,
      "speak": 5653,
      "ideas": 5654,
      "cardiff": 5655,
      "subsequent": 5656,
      "semi": 5657,
      "pieces": 5658,
      "cougar": 5659,
      "poetry": 5660,
      "crowd": 5661,
      "confirmed": 5662,
      "bit": 5663,
      "gord": 5664,
      "gives": 5665,
      "lov": 5666,
      "rog": 5667,
      "vul": 5668,
      "##icient": 5669,
      "reun": 5670,
      "chains": 5671,
      "leon": 5672,
      "impress": 5673,
      "bright": 5674,
      "joint": 5675,
      "consisted": 5676,
      "register": 5677,
      "invasion": 5678,
      "landfall": 5679,
      "1944": 5680,
      "130": 5681,
      "trial": 5682,
      "keats": 5683,
      "calc": 5684,
      "michigan": 5685,
      "philadelphia": 5686,
      "pitched": 5687,
      "regarded": 5688,
      "rapidly": 5689,
      "weapons": 5690,
      "families": 5691,
      "herself": 5692,
      "bats": 5693,
      "dry": 5694,
      "fal": 5695,
      "mir": 5696,
      "matter": 5697,
      "##aust": 5698,
      "##don": 5699,
      "##iqu": 5700,
      "##icks": 5701,
      "shell": 5702,
      "##umes": 5703,
      "send": 5704,
      "##illo": 5705,
      "extend": 5706,
      "resemb": 5707,
      "maria": 5708,
      "actors": 5709,
      "mush": 5710,
      "highlight": 5711,
      "##awa": 5712,
      "minim": 5713,
      "1990s": 5714,
      "transit": 5715,
      "maintained": 5716,
      "##resp": 5717,
      "humans": 5718,
      "value": 5719,
      "battalions": 5720,
      "williams": 5721,
      "premi": 5722,
      "injury": 5723,
      "dropped": 5724,
      "seventh": 5725,
      "failure": 5726,
      "aspects": 5727,
      "57": 5728,
      "dani": 5729,
      "gulf": 5730,
      "##ls": 5731,
      "##inity": 5732,
      "why": 5733,
      "##otyp": 5734,
      "fresh": 5735,
      "carl": 5736,
      "retired": 5737,
      "southeast": 5738,
      "phase": 5739,
      "##fully": 5740,
      "steam": 5741,
      "province": 5742,
      "extensive": 5743,
      "belief": 5744,
      "fung": 5745,
      "penins": 5746,
      "prepared": 5747,
      "dutch": 5748,
      "600": 5749,
      "bost": 5750,
      "catch": 5751,
      "dial": 5752,
      "drop": 5753,
      "gain": 5754,
      "ice": 5755,
      "mist": 5756,
      "rot": 5757,
      "##ja": 5758,
      "andy": 5759,
      "##iring": 5760,
      "italy": 5761,
      "chel": 5762,
      "##uli": 5763,
      "orch": 5764,
      "##ieval": 5765,
      "abu": 5766,
      "flank": 5767,
      "mah": 5768,
      "southwest": 5769,
      "concer": 5770,
      "steve": 5771,
      "medieval": 5772,
      "km2": 5773,
      "protection": 5774,
      "laid": 5775,
      "connected": 5776,
      "significantly": 5777,
      "creating": 5778,
      "jeff": 5779,
      "sustained": 5780,
      "bes": 5781,
      "gas": 5782,
      "kur": 5783,
      "rival": 5784,
      "wolf": 5785,
      "##onom": 5786,
      "##itable": 5787,
      "trail": 5788,
      "adapt": 5789,
      "perh": 5790,
      "emotion": 5791,
      "americans": 5792,
      "supply": 5793,
      "passes": 5794,
      "basket": 5795,
      "champion": 5796,
      "finding": 5797,
      "facilities": 5798,
      "walls": 5799,
      "producers": 5800,
      "recognized": 5801,
      "budget": 5802,
      "scheduled": 5803,
      "lieut": 5804,
      "96": 5805,
      "gab": 5806,
      "hem": 5807,
      "hell": 5808,
      "sought": 5809,
      "wish": 5810,
      "##ris": 5811,
      "##ees": 5812,
      "thin": 5813,
      "##aria": 5814,
      "##rete": 5815,
      "stones": 5816,
      "chose": 5817,
      "reconst": 5818,
      "cooper": 5819,
      "parall": 5820,
      "monument": 5821,
      "##amese": 5822,
      "crus": 5823,
      "distingu": 5824,
      "starts": 5825,
      "delay": 5826,
      "surviv": 5827,
      "popularity": 5828,
      "nucleus": 5829,
      "powers": 5830,
      "conservation": 5831,
      "necessary": 5832,
      "intelligence": 5833,
      "surrender": 5834,
      "perhaps": 5835,
      "cited": 5836,
      "fought": 5837,
      "il": 5838,
      "rating": 5839,
      "##can": 5840,
      "##mark": 5841,
      "##ato": 5842,
      "##isy": 5843,
      "##theless": 5844,
      "##olved": 5845,
      "altar": 5846,
      "consequ": 5847,
      "comic": 5848,
      "exec": 5849,
      "unus": 5850,
      "recently": 5851,
      "soft": 5852,
      "generation": 5853,
      "1981": 5854,
      "##apping": 5855,
      "household": 5856,
      "losses": 5857,
      "treatment": 5858,
      "martin": 5859,
      "vietnamese": 5860,
      "frequently": 5861,
      "policy": 5862,
      "libr": 5863,
      "iguan": 5864,
      "dated": 5865,
      "motion": 5866,
      "naz": 5867,
      "nathan": 5868,
      "##cription": 5869,
      "##fort": 5870,
      "##eda": 5871,
      "seg": 5872,
      "##ifying": 5873,
      "cole": 5874,
      "ends": 5875,
      "crash": 5876,
      "depend": 5877,
      "prompt": 5878,
      "priest": 5879,
      "regarding": 5880,
      "employed": 5881,
      "gradually": 5882,
      "constitution": 5883,
      "degree": 5884,
      "bottom": 5885,
      "thunderbirds": 5886,
      "cambod": 5887,
      "700": 5888,
      "bin": 5889,
      "fellow": 5890,
      "ron": 5891,
      "sap": 5892,
      "wis": 5893,
      "##oen": 5894,
      "##onent": 5895,
      "##elle": 5896,
      "shaped": 5897,
      "comes": 5898,
      "##sey": 5899,
      "contained": 5900,
      "gray": 5901,
      "prefer": 5902,
      "attorn": 5903,
      "wars": 5904,
      "##ologists": 5905,
      "##oys": 5906,
      "distribution": 5907,
      "179": 5908,
      "steph": 5909,
      "collected": 5910,
      "1939": 5911,
      "convention": 5912,
      "finds": 5913,
      "industrial": 5914,
      "wrest": 5915,
      "safety": 5916,
      "conduct": 5917,
      "oxford": 5918,
      "pilot": 5919,
      "##eastern": 5920,
      "psych": 5921,
      "peninsula": 5922,
      "attorney": 5923,
      "73": 5924,
      "eld": 5925,
      "kang": 5926,
      "nc": 5927,
      "vice": 5928,
      "##lusion": 5929,
      "##thur": 5930,
      "##iments": 5931,
      "cham": 5932,
      "lev": 5933,
      "##sea": 5934,
      "contributed": 5935,
      "join": 5936,
      "gameplay": 5937,
      "wins": 5938,
      "worldwide": 5939,
      "severe": 5940,
      "simple": 5941,
      "17th": 5942,
      "1942": 5943,
      "serving": 5944,
      "allows": 5945,
      "macle": 5946,
      "improved": 5947,
      "negative": 5948,
      "##borough": 5949,
      "athletes": 5950,
      "astron": 5951,
      "habitat": 5952,
      "cinem": 5953,
      "fashion": 5954,
      "gordon": 5955,
      "62": 5956,
      "61": 5957,
      "95": 5958,
      "aston": 5959,
      "cd": 5960,
      "egg": 5961,
      "fan": 5962,
      "lisa": 5963,
      "nba": 5964,
      "sie": 5965,
      "ty": 5966,
      "witness": 5967,
      "##ias": 5968,
      "##ua": 5969,
      "store": 5970,
      "##ivity": 5971,
      "alf": 5972,
      "frame": 5973,
      "##opes": 5974,
      "neither": 5975,
      "##acks": 5976,
      "incident": 5977,
      "##ansas": 5978,
      "portra": 5979,
      "concrete": 5980,
      "##ancing": 5981,
      "1950s": 5982,
      "1918": 5983,
      "turner": 5984,
      "solid": 5985,
      "effective": 5986,
      "programs": 5987,
      "electric": 5988,
      "championships": 5989,
      "entirely": 5990,
      "commissioned": 5991,
      "economy": 5992,
      "fictional": 5993,
      "dynasty": 5994,
      "challeng": 5995,
      "volunte": 5996,
      "lieutenant": 5997,
      "800": 5998,
      "97": 5999,
      "cav": 6000,
      "dates": 6001,
      "hind": 6002,
      "jain": 6003,
      "pap": 6004,
      "ts": 6005,
      "##rig": 6006,
      "##iot": 6007,
      "##iled": 6008,
      "stages": 6009,
      "##eton": 6010,
      "items": 6011,
      "pros": 6012,
      "##apes": 6013,
      "boise": 6014,
      "##outs": 6015,
      "mario": 6016,
      "floor": 6017,
      "canal": 6018,
      "centuries": 6019,
      "muslim": 6020,
      "setting": 6021,
      "transm": 6022,
      "1969": 6023,
      "1968": 6024,
      "expanded": 6025,
      "sentence": 6026,
      "turk": 6027,
      "earthqu": 6028,
      "reasons": 6029,
      "negot": 6030,
      "normal": 6031,
      "slowly": 6032,
      "drawn": 6033,
      "sweet": 6034,
      "europium": 6035,
      "kilometres": 6036,
      "imperial": 6037,
      "lewis": 6038,
      "exclus": 6039,
      "boston": 6040,
      "dota": 6041,
      "gully": 6042,
      "han": 6043,
      "jac": 6044,
      "poll": 6045,
      "tall": 6046,
      "##rum": 6047,
      "##rang": 6048,
      "##win": 6049,
      "##ingly": 6050,
      "##rec": 6051,
      "##lywood": 6052,
      "##ched": 6053,
      "##erse": 6054,
      "plate": 6055,
      "upd": 6056,
      "decade": 6057,
      "decades": 6058,
      "12th": 6059,
      "1975": 6060,
      "juan": 6061,
      "deaths": 6062,
      "planning": 6063,
      "russian": 6064,
      "attract": 6065,
      "chemical": 6066,
      "experienced": 6067,
      "municip": 6068,
      "roughly": 6069,
      "expedition": 6070,
      "chorus": 6071,
      "72": 6072,
      "85": 6073,
      "bart": 6074,
      "gil": 6075,
      "gross": 6076,
      "kits": 6077,
      "nich": 6078,
      "##de": 6079,
      "##iences": 6080,
      "##mans": 6081,
      "##asure": 6082,
      "##amin": 6083,
      "stal": 6084,
      "##ola": 6085,
      "##ayer": 6086,
      "##ava": 6087,
      "firm": 6088,
      "worth": 6089,
      "allied": 6090,
      "##oked": 6091,
      "evita": 6092,
      "interact": 6093,
      "engaged": 6094,
      "pope": 6095,
      "terror": 6096,
      "1965": 6097,
      "1974": 6098,
      "didn": 6099,
      "greg": 6100,
      "avenue": 6101,
      "evening": 6102,
      "##ographic": 6103,
      "organiz": 6104,
      "authors": 6105,
      "patrol": 6106,
      "##bridge": 6107,
      "summ": 6108,
      "massive": 6109,
      "transportation": 6110,
      "eyes": 6111,
      "girls": 6112,
      "occupied": 6113,
      "occasionally": 6114,
      "81": 6115,
      "94": 6116,
      "hin": 6117,
      "loy": 6118,
      "merc": 6119,
      "sector": 6120,
      "ye": 6121,
      "##oir": 6122,
      "##set": 6123,
      "##uan": 6124,
      "##uate": 6125,
      "##pass": 6126,
      "##erted": 6127,
      "##ini": 6128,
      "##ompl": 6129,
      "##adh": 6130,
      "##ading": 6131,
      "##ider": 6132,
      "isol": 6133,
      "isab": 6134,
      "##utz": 6135,
      "##ersey": 6136,
      "##istan": 6137,
      "recre": 6138,
      "adap": 6139,
      "bron": 6140,
      "quite": 6141,
      "##anny": 6142,
      "churches": 6143,
      "editor": 6144,
      "passeng": 6145,
      "additionally": 6146,
      "laws": 6147,
      "##shire": 6148,
      "speaking": 6149,
      "successfully": 6150,
      "holy": 6151,
      "violence": 6152,
      "dollar": 6153,
      "platform": 6154,
      "purchased": 6155,
      "disappear": 6156,
      "khanh": 6157,
      "71": 6158,
      "jurch": 6159,
      "rome": 6160,
      "rivers": 6161,
      "wick": 6162,
      "wides": 6163,
      "##sw": 6164,
      "##ule": 6165,
      "##inn": 6166,
      "##ela": 6167,
      "##thm": 6168,
      "##anda": 6169,
      "abb": 6170,
      "marsh": 6171,
      "brid": 6172,
      "formula": 6173,
      "liu": 6174,
      "brook": 6175,
      "simon": 6176,
      "164": 6177,
      "declined": 6178,
      "jamal": 6179,
      "wedding": 6180,
      "bath": 6181,
      "drew": 6182,
      "hang": 6183,
      "map": 6184,
      "rene": 6185,
      "sail": 6186,
      "##yson": 6187,
      "##hire": 6188,
      "##itan": 6189,
      "##lyss": 6190,
      "arsen": 6191,
      "spons": 6192,
      "marl": 6193,
      "accompl": 6194,
      "remn": 6195,
      "assass": 6196,
      "elimin": 6197,
      "subm": 6198,
      "longest": 6199,
      "160": 6200,
      "1946": 6201,
      "owners": 6202,
      "protagon": 6203,
      "corpor": 6204,
      "arrival": 6205,
      "details": 6206,
      "stret": 6207,
      "experiment": 6208,
      "politics": 6209,
      "brian": 6210,
      "begun": 6211,
      "pupp": 6212,
      "dublin": 6213,
      "learned": 6214,
      "tennyson": 6215,
      "briefly": 6216,
      "purpose": 6217,
      "category": 6218,
      "permanent": 6219,
      "paintings": 6220,
      "macleod": 6221,
      "cul": 6222,
      "cos": 6223,
      "jes": 6224,
      "sar": 6225,
      "sid": 6226,
      "tu": 6227,
      "zone": 6228,
      "##eed": 6229,
      "##eals": 6230,
      "##town": 6231,
      "##han": 6232,
      "##arian": 6233,
      "##ules": 6234,
      "##ocated": 6235,
      "grav": 6236,
      "marine": 6237,
      "applied": 6238,
      "impr": 6239,
      "interior": 6240,
      "accident": 6241,
      "moves": 6242,
      "guide": 6243,
      "simone": 6244,
      "adding": 6245,
      "performing": 6246,
      "crime": 6247,
      "1950": 6248,
      "possibility": 6249,
      "basin": 6250,
      "billion": 6251,
      "technical": 6252,
      "settlers": 6253,
      "braz": 6254,
      "literary": 6255,
      "exception": 6256,
      "thirty": 6257,
      "hydro": 6258,
      "instrument": 6259,
      "ble": 6260,
      "hired": 6261,
      "kat": 6262,
      "lit": 6263,
      "lic": 6264,
      "##rence": 6265,
      "##atus": 6266,
      "##amy": 6267,
      "albert": 6268,
      "##utation": 6269,
      "seat": 6270,
      "##unk": 6271,
      "unsu": 6272,
      "##iance": 6273,
      "contrib": 6274,
      "roof": 6275,
      "##ffman": 6276,
      "acres": 6277,
      "door": 6278,
      "guy": 6279,
      "phill": 6280,
      "calls": 6281,
      "developing": 6282,
      "1966": 6283,
      "1952": 6284,
      "justice": 6285,
      "corresp": 6286,
      "deter": 6287,
      "1936": 6288,
      "1919": 6289,
      "fields": 6290,
      "freed": 6291,
      "discovery": 6292,
      "happy": 6293,
      "participated": 6294,
      "##worth": 6295,
      "symbol": 6296,
      "enjoyed": 6297,
      "routes": 6298,
      "responded": 6299,
      "accompanied": 6300,
      "earthquake": 6301,
      "correspond": 6302,
      "fuel": 6303,
      "hip": 6304,
      "hung": 6305,
      "ulyss": 6306,
      "##rons": 6307,
      "##bled": 6308,
      "ther": 6309,
      "##eds": 6310,
      "##isers": 6311,
      "ones": 6312,
      "heard": 6313,
      "##oses": 6314,
      "uns": 6315,
      "##okes": 6316,
      "decre": 6317,
      "charter": 6318,
      "brothers": 6319,
      "populations": 6320,
      "belt": 6321,
      "oldest": 6322,
      "110": 6323,
      "177": 6324,
      "stew": 6325,
      "heads": 6326,
      "characteristics": 6327,
      "clubs": 6328,
      "moon": 6329,
      "initi": 6330,
      "speech": 6331,
      "competitions": 6332,
      "combination": 6333,
      "engineering": 6334,
      "existing": 6335,
      "existence": 6336,
      "painting": 6337,
      "anthony": 6338,
      "ulysses": 6339,
      "77": 6340,
      "dru": 6341,
      "dock": 6342,
      "fount": 6343,
      "ni": 6344,
      "vision": 6345,
      "##ym": 6346,
      "##pread": 6347,
      "##ications": 6348,
      "##aked": 6349,
      "lear": 6350,
      "##pty": 6351,
      "##ipl": 6352,
      "reserve": 6353,
      "marc": 6354,
      "goes": 6355,
      "carib": 6356,
      "joy": 6357,
      "consists": 6358,
      "##phy": 6359,
      "subt": 6360,
      "submar": 6361,
      "1973": 6362,
      "magic": 6363,
      "grey": 6364,
      "1930": 6365,
      "lasted": 6366,
      "reviewers": 6367,
      "typical": 6368,
      "younger": 6369,
      "coastal": 6370,
      "dougl": 6371,
      "biography": 6372,
      "cardinal": 6373,
      "funding": 6374,
      "dominated": 6375,
      "neck": 6376,
      "benef": 6377,
      "thousands": 6378,
      "opportunity": 6379,
      "turkish": 6380,
      "widespread": 6381,
      "59": 6382,
      "aim": 6383,
      "caught": 6384,
      "fit": 6385,
      "gri": 6386,
      "jazz": 6387,
      "kenn": 6388,
      "mine": 6389,
      "pav": 6390,
      "rum": 6391,
      "task": 6392,
      "##ni": 6393,
      "##water": 6394,
      "##uct": 6395,
      "##com": 6396,
      "##come": 6397,
      "##zer": 6398,
      "##aser": 6399,
      "##iday": 6400,
      "##usal": 6401,
      "chance": 6402,
      "supre": 6403,
      "##iston": 6404,
      "tra": 6405,
      "resident": 6406,
      "usa": 6407,
      "capable": 6408,
      "receiving": 6409,
      "depict": 6410,
      "1967": 6411,
      "expans": 6412,
      "anything": 6413,
      "missing": 6414,
      "greatly": 6415,
      "classic": 6416,
      "turning": 6417,
      "reality": 6418,
      "everything": 6419,
      "mountains": 6420,
      "georg": 6421,
      "affair": 6422,
      "technique": 6423,
      "holding": 6424,
      "closely": 6425,
      "cruiser": 6426,
      "stopped": 6427,
      "substant": 6428,
      "##works": 6429,
      "hornung": 6430,
      "vehicles": 6431,
      "weakened": 6432,
      "ceremony": 6433,
      "unsuccess": 6434,
      "66": 6435,
      "98": 6436,
      "cens": 6437,
      "jersey": 6438,
      "ori": 6439,
      "tas": 6440,
      "tells": 6441,
      "witch": 6442,
      "##aire": 6443,
      "##born": 6444,
      "##itors": 6445,
      "##ici": 6446,
      "##iles": 6447,
      "##agre": 6448,
      "allah": 6449,
      "aml": 6450,
      "descend": 6451,
      "evac": 6452,
      "flash": 6453,
      "decline": 6454,
      "noisy": 6455,
      "monarch": 6456,
      "acid": 6457,
      "175": 6458,
      "provides": 6459,
      "headed": 6460,
      "serves": 6461,
      "myc": 6462,
      "1930s": 6463,
      "1914": 6464,
      "courts": 6465,
      "legacy": 6466,
      "storyline": 6467,
      "similarly": 6468,
      "colonial": 6469,
      "railroad": 6470,
      "inspir": 6471,
      "derived": 6472,
      "creator": 6473,
      "rules": 6474,
      "banks": 6475,
      "assistant": 6476,
      "restaurant": 6477,
      "iguanodon": 6478,
      "astronom": 6479,
      "caribbe": 6480,
      "6th": 6481,
      "bought": 6482,
      "kel": 6483,
      "pup": 6484,
      "rio": 6485,
      "sed": 6486,
      "sort": 6487,
      "##laim": 6488,
      "##body": 6489,
      "##cle": 6490,
      "inner": 6491,
      "##entially": 6492,
      "##pton": 6493,
      "grade": 6494,
      "##athers": 6495,
      "resour": 6496,
      "##ifications": 6497,
      "supposed": 6498,
      "locations": 6499,
      "invited": 6500,
      "downlo": 6501,
      "classified": 6502,
      "viewed": 6503,
      "survived": 6504,
      "palace": 6505,
      "##araj": 6506,
      "reading": 6507,
      "falls": 6508,
      "hills": 6509,
      "innings": 6510,
      "flights": 6511,
      "rolling": 6512,
      "filled": 6513,
      "haiti": 6514,
      "battleship": 6515,
      "dissipated": 6516,
      "chelsea": 6517,
      "orchest": 6518,
      "douglas": 6519,
      "caribbean": 6520,
      "cot": 6521,
      "dim": 6522,
      "jay": 6523,
      "rural": 6524,
      "sang": 6525,
      "table": 6526,
      "##ram": 6527,
      "##rest": 6528,
      "##har": 6529,
      "##vens": 6530,
      "##zac": 6531,
      "asia": 6532,
      "##cher": 6533,
      "##estone": 6534,
      "shared": 6535,
      "##agn": 6536,
      "##abil": 6537,
      "exact": 6538,
      "trying": 6539,
      "worship": 6540,
      "perry": 6541,
      "resist": 6542,
      "evil": 6543,
      "maeda": 6544,
      "receive": 6545,
      "novels": 6546,
      "1945": 6547,
      "1971": 6548,
      "describing": 6549,
      "ways": 6550,
      "destiny": 6551,
      "georgian": 6552,
      "electronic": 6553,
      "regional": 6554,
      "colonel": 6555,
      "rebu": 6556,
      "watched": 6557,
      "establishment": 6558,
      "puzz": 6559,
      "alien": 6560,
      "constantine": 6561,
      "ratings": 6562,
      "acquired": 6563,
      "opinion": 6564,
      "custom": 6565,
      "repeated": 6566,
      "eagle": 6567,
      "hibari": 6568,
      "atmosphere": 6569,
      "dan": 6570,
      "eighth": 6571,
      "fine": 6572,
      "gate": 6573,
      "jones": 6574,
      "lad": 6575,
      "mtv": 6576,
      "pack": 6577,
      "qedar": 6578,
      "von": 6579,
      "##ruli": 6580,
      "##ji": 6581,
      "##acity": 6582,
      "##eme": 6583,
      "anton": 6584,
      "##ighter": 6585,
      "##aka": 6586,
      "exerc": 6587,
      "spacing": 6588,
      "boys": 6589,
      "amate": 6590,
      "intention": 6591,
      "whereas": 6592,
      "phoen": 6593,
      "1982": 6594,
      "crimin": 6595,
      "176": 6596,
      "steel": 6597,
      "evergl": 6598,
      "moder": 6599,
      "entry": 6600,
      "demand": 6601,
      "romani": 6602,
      "penalty": 6603,
      "focused": 6604,
      "venus": 6605,
      "teaching": 6606,
      "mortal": 6607,
      "opposition": 6608,
      "boliv": 6609,
      "converted": 6610,
      "library": 6611,
      "everglades": 6612,
      "dod": 6613,
      "dating": 6614,
      "ech": 6615,
      "lamb": 6616,
      "mul": 6617,
      "wy": 6618,
      "##bur": 6619,
      "##ona": 6620,
      "##ador": 6621,
      "franch": 6622,
      "##iful": 6623,
      "plun": 6624,
      "enl": 6625,
      "recru": 6626,
      "pregn": 6627,
      "knew": 6628,
      "##issance": 6629,
      "regime": 6630,
      "infr": 6631,
      "1980": 6632,
      "depicted": 6633,
      "lover": 6634,
      "1976": 6635,
      "providing": 6636,
      "1956": 6637,
      "protect": 6638,
      "1916": 6639,
      "1913": 6640,
      "250": 6641,
      "explos": 6642,
      "entering": 6643,
      "moz": 6644,
      "engineers": 6645,
      "poems": 6646,
      "uncle": 6647,
      "assistance": 6648,
      "renamed": 6649,
      "arranged": 6650,
      "oslo": 6651,
      "succeeded": 6652,
      "rescue": 6653,
      "mushroom": 6654,
      "brazil": 6655,
      "69": 6656,
      "87": 6657,
      "8th": 6658,
      "lenn": 6659,
      "tied": 6660,
      "##rant": 6661,
      "##ilton": 6662,
      "conqu": 6663,
      "orn": 6664,
      "##ardo": 6665,
      "lee": 6666,
      "##elli": 6667,
      "##ights": 6668,
      "agent": 6669,
      "partners": 6670,
      "attached": 6671,
      "defined": 6672,
      "strateg": 6673,
      "supplies": 6674,
      "10th": 6675,
      "112": 6676,
      "1943": 6677,
      "expos": 6678,
      "camps": 6679,
      "township": 6680,
      "communist": 6681,
      "##book": 6682,
      "prize": 6683,
      "##ipping": 6684,
      "certified": 6685,
      "holds": 6686,
      "tomb": 6687,
      "separated": 6688,
      "immig": 6689,
      "credited": 6690,
      "credits": 6691,
      "methods": 6692,
      "consisting": 6693,
      "romantic": 6694,
      "ghost": 6695,
      "article": 6696,
      "delivered": 6697,
      "citiz": 6698,
      "basketball": 6699,
      "siege": 6700,
      "fel": 6701,
      "hits": 6702,
      "patt": 6703,
      "sad": 6704,
      "##ns": 6705,
      "##bles": 6706,
      "##eman": 6707,
      "##uls": 6708,
      "hear": 6709,
      "##uma": 6710,
      "##rier": 6711,
      "print": 6712,
      "spin": 6713,
      "##ube": 6714,
      "desire": 6715,
      "outstanding": 6716,
      "pole": 6717,
      "secure": 6718,
      "##ropri": 6719,
      "depos": 6720,
      "stevens": 6721,
      "1963": 6722,
      "commanded": 6723,
      "morrison": 6724,
      "professor": 6725,
      "##iece": 6726,
      "civilian": 6727,
      "colonies": 6728,
      "rangers": 6729,
      "athletic": 6730,
      "examples": 6731,
      "controversy": 6732,
      "dinosaur": 6733,
      "rarely": 6734,
      "sudden": 6735,
      "hindu": 6736,
      "adapted": 6737,
      "nas": 6738,
      "util": 6739,
      "voy": 6740,
      "##burg": 6741,
      "##kins": 6742,
      "##xe": 6743,
      "##je": 6744,
      "##aling": 6745,
      "##rot": 6746,
      "##emia": 6747,
      "chess": 6748,
      "plain": 6749,
      "arthur": 6750,
      "unl": 6751,
      "unn": 6752,
      "leaves": 6753,
      "prey": 6754,
      "##mann": 6755,
      "remar": 6756,
      "##issipp": 6757,
      "eliz": 6758,
      "soil": 6759,
      "##attle": 6760,
      "transform": 6761,
      "mississipp": 6762,
      "reputation": 6763,
      "protected": 6764,
      "classes": 6765,
      "australians": 6766,
      "correct": 6767,
      "##oba": 6768,
      "window": 6769,
      "walter": 6770,
      "references": 6771,
      "labour": 6772,
      "circum": 6773,
      "hollywood": 6774,
      "archaeology": 6775,
      "indicate": 6776,
      "montana": 6777,
      "accounts": 6778,
      "##aska": 6779,
      "remainder": 6780,
      "bradford": 6781,
      "shooting": 6782,
      "utc": 6783,
      "finishing": 6784,
      "portrayed": 6785,
      "alexander": 6786,
      "columbia": 6787,
      "truj": 6788,
      "ritual": 6789,
      "sunday": 6790,
      "daniel": 6791,
      "fountain": 6792,
      "ecc": 6793,
      "lat": 6794,
      "tests": 6795,
      "vent": 6796,
      "##ture": 6797,
      "online": 6798,
      "conte": 6799,
      "freder": 6800,
      "anzac": 6801,
      "worst": 6802,
      "soul": 6803,
      "warm": 6804,
      "undert": 6805,
      "divine": 6806,
      "16th": 6807,
      "11th": 6808,
      "1978": 6809,
      "missions": 6810,
      "1953": 6811,
      "turns": 6812,
      "occurs": 6813,
      "introduction": 6814,
      "facing": 6815,
      "producing": 6816,
      "memory": 6817,
      "denied": 6818,
      "appoint": 6819,
      "maryland": 6820,
      "feelings": 6821,
      "specifically": 6822,
      "hearts": 6823,
      "threatened": 6824,
      "croatian": 6825,
      "chairman": 6826,
      "agricultural": 6827,
      "trujillo": 6828,
      "bos": 6829,
      "rand": 6830,
      "##no": 6831,
      "##ti": 6832,
      "##ora": 6833,
      "##enz": 6834,
      "##entions": 6835,
      "##uri": 6836,
      "alan": 6837,
      "##agues": 6838,
      "proh": 6839,
      "exit": 6840,
      "noting": 6841,
      "roxas": 6842,
      "offense": 6843,
      "interested": 6844,
      "indig": 6845,
      "acts": 6846,
      "##ocked": 6847,
      "strand": 6848,
      "studied": 6849,
      "divisions": 6850,
      "appearing": 6851,
      "leads": 6852,
      "stef": 6853,
      "passage": 6854,
      "successor": 6855,
      "sword": 6856,
      "bush": 6857,
      "communities": 6858,
      "views": 6859,
      "replace": 6860,
      "statement": 6861,
      "connection": 6862,
      "wooden": 6863,
      "homer": 6864,
      "getting": 6865,
      "scientific": 6866,
      "recognition": 6867,
      "samuel": 6868,
      "feeling": 6869,
      "substit": 6870,
      "favorite": 6871,
      "masters": 6872,
      "alternative": 6873,
      "charlie": 6874,
      "mississippi": 6875,
      "7th": 6876,
      "91": 6877,
      "eu": 6878,
      "nbc": 6879,
      "##oz": 6880,
      "##rations": 6881,
      "##ients": 6882,
      "##cy": 6883,
      "##gie": 6884,
      "##hed": 6885,
      "##mel": 6886,
      "nether": 6887,
      "##pping": 6888,
      "brand": 6889,
      "warri": 6890,
      "howard": 6891,
      "maintain": 6892,
      "##ructure": 6893,
      "1915": 6894,
      "reviewer": 6895,
      "basic": 6896,
      "seeing": 6897,
      "activision": 6898,
      "predec": 6899,
      "wrong": 6900,
      "duke": 6901,
      "lords": 6902,
      "dollars": 6903,
      "dynam": 6904,
      "gallery": 6905,
      "principal": 6906,
      "picture": 6907,
      "rifles": 6908,
      "message": 6909,
      "global": 6910,
      "##break": 6911,
      "dismissed": 6912,
      "arsenal": 6913,
      "supreme": 6914,
      "plunket": 6915,
      "79": 6916,
      "gam": 6917,
      "##sch": 6918,
      "##taining": 6919,
      "##30": 6920,
      "##orters": 6921,
      "##oul": 6922,
      "##elve": 6923,
      "##str": 6924,
      "##acent": 6925,
      "##ersed": 6926,
      "plants": 6927,
      "twelve": 6928,
      "##onder": 6929,
      "attributed": 6930,
      "charges": 6931,
      "knots": 6932,
      "##aws": 6933,
      "retire": 6934,
      "capacity": 6935,
      "122": 6936,
      "##ront": 6937,
      "instruct": 6938,
      "continuing": 6939,
      "enterprise": 6940,
      "calvert": 6941,
      "opponents": 6942,
      "changing": 6943,
      "involvement": 6944,
      "veget": 6945,
      "tribes": 6946,
      "drawing": 6947,
      "academic": 6948,
      "hugh": 6949,
      "discussed": 6950,
      "ninth": 6951,
      "considerable": 6952,
      "extrem": 6953,
      "specimens": 6954,
      "isabella": 6955,
      "74": 6956,
      "cu": 6957,
      "dna": 6958,
      "danny": 6959,
      "fab": 6960,
      "hud": 6961,
      "session": 6962,
      "saraj": 6963,
      "tie": 6964,
      "taught": 6965,
      "vary": 6966,
      "yank": 6967,
      "##iar": 6968,
      "##eenth": 6969,
      "theater": 6970,
      "##orer": 6971,
      "inland": 6972,
      "##itage": 6973,
      "##rel": 6974,
      "sty": 6975,
      "forests": 6976,
      "##oting": 6977,
      "##osis": 6978,
      "shut": 6979,
      "##aga": 6980,
      "##ctions": 6981,
      "exchange": 6982,
      "##arts": 6983,
      "leuk": 6984,
      "marks": 6985,
      "carbon": 6986,
      "wealth": 6987,
      "offers": 6988,
      "##kson": 6989,
      "someone": 6990,
      "releg": 6991,
      "1948": 6992,
      "collect": 6993,
      "1917": 6994,
      "##ews": 6995,
      "standards": 6996,
      "settle": 6997,
      "difficulty": 6998,
      "ruled": 6999,
      "towers": 7000,
      "scholar": 7001,
      "sevent": 7002,
      "photograph": 7003,
      "##evo": 7004,
      "challenge": 7005,
      "adventure": 7006,
      "dangerous": 7007,
      "stephen": 7008,
      "kitsune": 7009,
      "sarajevo": 7010,
      "88": 7011,
      "99": 7012,
      "cory": 7013,
      "faces": 7014,
      "jif": 7015,
      "##eu": 7016,
      "##fri": 7017,
      "##6th": 7018,
      "##elin": 7019,
      "##idden": 7020,
      "alg": 7021,
      "shore": 7022,
      "spr": 7023,
      "##tegr": 7024,
      "manner": 7025,
      "decor": 7026,
      "subs": 7027,
      "signing": 7028,
      "discip": 7029,
      "1979": 7030,
      "campb": 7031,
      "1951": 7032,
      "demol": 7033,
      "superior": 7034,
      "rocky": 7035,
      "talk": 7036,
      "teacher": 7037,
      "autom": 7038,
      "absor": 7039,
      "guardian": 7040,
      "victoria": 7041,
      "split": 7042,
      "emotional": 7043,
      "bolivar": 7044,
      "frederick": 7045,
      "yankovic": 7046,
      "ah": 7047,
      "dag": 7048,
      "mam": 7049,
      "mode": 7050,
      "nap": 7051,
      "page": 7052,
      "races": 7053,
      "si": 7054,
      "sell": 7055,
      "tig": 7056,
      "wim": 7057,
      "yan": 7058,
      "##eper": 7059,
      "##err": 7060,
      "##esc": 7061,
      "##itled": 7062,
      "##aments": 7063,
      "alph": 7064,
      "##imet": 7065,
      "shop": 7066,
      "##avia": 7067,
      "proceed": 7068,
      "##abeth": 7069,
      "##berts": 7070,
      "heritage": 7071,
      "cloud": 7072,
      "##anger": 7073,
      "##ultane": 7074,
      "joe": 7075,
      "##iously": 7076,
      "consum": 7077,
      "##graded": 7078,
      "##ugu": 7079,
      "simultane": 7080,
      "121": 7081,
      "landed": 7082,
      "1961": 7083,
      "breaking": 7084,
      "1954": 7085,
      "archb": 7086,
      "brigades": 7087,
      "replacement": 7088,
      "historians": 7089,
      "nighting": 7090,
      "crossing": 7091,
      "relationships": 7092,
      "observations": 7093,
      "ancest": 7094,
      "nomination": 7095,
      "##know": 7096,
      "leadership": 7097,
      "somali": 7098,
      "candidate": 7099,
      "clarkson": 7100,
      "parallel": 7101,
      "chamber": 7102,
      "mozamb": 7103,
      "jifna": 7104,
      "fro": 7105,
      "gle": 7106,
      "lap": 7107,
      "santa": 7108,
      "tank": 7109,
      "##nell": 7110,
      "##dal": 7111,
      "##wich": 7112,
      "##orous": 7113,
      "##isf": 7114,
      "##eline": 7115,
      "##ivals": 7116,
      "##aya": 7117,
      "##ceived": 7118,
      "##osa": 7119,
      "sher": 7120,
      "##istol": 7121,
      "##illing": 7122,
      "cloth": 7123,
      "##raf": 7124,
      "roberts": 7125,
      "marines": 7126,
      "agency": 7127,
      "parties": 7128,
      "partial": 7129,
      "secured": 7130,
      "blocks": 7131,
      "teeth": 7132,
      "paras": 7133,
      "accur": 7134,
      "simps": 7135,
      "estate": 7136,
      "##ropol": 7137,
      "distributed": 7138,
      "classical": 7139,
      "1937": 7140,
      "legs": 7141,
      "believes": 7142,
      "walk": 7143,
      "destroyers": 7144,
      "brien": 7145,
      "rooms": 7146,
      "wilde": 7147,
      "jerusal": 7148,
      "bringing": 7149,
      "adults": 7150,
      "skye": 7151,
      "bono": 7152,
      "documentary": 7153,
      "picked": 7154,
      "intersection": 7155,
      "behavi": 7156,
      "recommended": 7157,
      "##ranean": 7158,
      "francisco": 7159,
      "fungus": 7160,
      "organizations": 7161,
      "amateur": 7162,
      "extremely": 7163,
      "nightingale": 7164,
      "simpsons": 7165,
      "jerusalem": 7166,
      "bure": 7167,
      "diet": 7168,
      "gone": 7169,
      "gather": 7170,
      "ml": 7171,
      "pir": 7172,
      "sections": 7173,
      "wic": 7174,
      "##iable": 7175,
      "##eor": 7176,
      "##gas": 7177,
      "##hi": 7178,
      "##asions": 7179,
      "##rected": 7180,
      "##eland": 7181,
      "##umps": 7182,
      "##avada": 7183,
      "clay": 7184,
      "adam": 7185,
      "adams": 7186,
      "carter": 7187,
      "genre": 7188,
      "showing": 7189,
      "annivers": 7190,
      "missed": 7191,
      "1955": 7192,
      "godd": 7193,
      "listen": 7194,
      "streets": 7195,
      "##iveness": 7196,
      "windows": 7197,
      "##ivalent": 7198,
      "surviving": 7199,
      "nevertheless": 7200,
      "hamilton": 7201,
      "territories": 7202,
      "languages": 7203,
      "multi": 7204,
      "banai": 7205,
      "immediate": 7206,
      "surrounded": 7207,
      "olympics": 7208,
      "concerns": 7209,
      "rifle": 7210,
      "diameter": 7211,
      "extreme": 7212,
      "tunnel": 7213,
      "argentina": 7214,
      "municipal": 7215,
      "isolated": 7216,
      "learning": 7217,
      "expansion": 7218,
      "3d": 7219,
      "82": 7220,
      "89": 7221,
      "dipl": 7222,
      "gor": 7223,
      "hoc": 7224,
      "lanc": 7225,
      "option": 7226,
      "pale": 7227,
      "sons": 7228,
      "tick": 7229,
      "vac": 7230,
      "wants": 7231,
      "##ois": 7232,
      "##nic": 7233,
      "##ping": 7234,
      "##inals": 7235,
      "##ester": 7236,
      "##eness": 7237,
      "##rets": 7238,
      "##adow": 7239,
      "1900": 7240,
      "existed": 7241,
      "prer": 7242,
      "##ears": 7243,
      "##oven": 7244,
      "firing": 7245,
      "mans": 7246,
      "web": 7247,
      "flat": 7248,
      "##wealth": 7249,
      "retreat": 7250,
      "armor": 7251,
      "cris": 7252,
      "gerard": 7253,
      "1958": 7254,
      "protests": 7255,
      "tries": 7256,
      "detail": 7257,
      "detailed": 7258,
      "commonwealth": 7259,
      "heaven": 7260,
      "mole": 7261,
      "ceratops": 7262,
      "ruler": 7263,
      "approached": 7264,
      "inhabit": 7265,
      "institutions": 7266,
      "arrangement": 7267,
      "emerged": 7268,
      "encouraged": 7269,
      "admiral": 7270,
      "compounds": 7271,
      "ryan": 7272,
      "reunion": 7273,
      "portrait": 7274,
      "inspiration": 7275,
      "anniversary": 7276,
      "fern": 7277,
      "kit": 7278,
      "las": 7279,
      "na": 7280,
      "pip": 7281,
      "sight": 7282,
      "##ooth": 7283,
      "##itals": 7284,
      "##inger": 7285,
      "##rell": 7286,
      "##elet": 7287,
      "##iling": 7288,
      "stem": 7289,
      "asc": 7290,
      "bear": 7291,
      "mega": 7292,
      "cob": 7293,
      "##ensis": 7294,
      "flo": 7295,
      "songwrit": 7296,
      "pointed": 7297,
      "counties": 7298,
      "1949": 7299,
      "1977": 7300,
      "designation": 7301,
      "implement": 7302,
      "corp": 7303,
      "triple": 7304,
      "videos": 7305,
      "internal": 7306,
      "attempting": 7307,
      "treated": 7308,
      "crossed": 7309,
      "equal": 7310,
      "suffering": 7311,
      "regularly": 7312,
      "admitted": 7313,
      "sequel": 7314,
      "norman": 7315,
      "institution": 7316,
      "choir": 7317,
      "hoped": 7318,
      "giant": 7319,
      "climate": 7320,
      "apparent": 7321,
      "lbw": 7322,
      "roger": 7323,
      "unusual": 7324,
      "eggs": 7325,
      "renew": 7326,
      "freedom": 7327,
      "lennon": 7328,
      "07": 7329,
      "63": 7330,
      "kid": 7331,
      "lam": 7332,
      "ped": 7333,
      "pion": 7334,
      "sulf": 7335,
      "sessions": 7336,
      "tales": 7337,
      "##ook": 7338,
      "##yon": 7339,
      "##pret": 7340,
      "##arf": 7341,
      "anek": 7342,
      "##using": 7343,
      "##rif": 7344,
      "##unt": 7345,
      "##antly": 7346,
      "##uda": 7347,
      "herge": 7348,
      "relative": 7349,
      "desert": 7350,
      "serial": 7351,
      "aged": 7352,
      "goffman": 7353,
      "fled": 7354,
      "indeed": 7355,
      "assumed": 7356,
      "acknow": 7357,
      "airline": 7358,
      "transition": 7359,
      "musicians": 7360,
      "meteor": 7361,
      "##roll": 7362,
      "owner": 7363,
      "medium": 7364,
      "13th": 7365,
      "imposs": 7366,
      "verse": 7367,
      "harv": 7368,
      "visible": 7369,
      "##inking": 7370,
      "approved": 7371,
      "convoy": 7372,
      "possession": 7373,
      "##aurus": 7374,
      "footage": 7375,
      "strongly": 7376,
      "statistics": 7377,
      "##ombat": 7378,
      "rhodes": 7379,
      "identity": 7380,
      "improve": 7381,
      "kilmer": 7382,
      "duties": 7383,
      "hundreds": 7384,
      "janeiro": 7385,
      "wearing": 7386,
      "reconstruction": 7387,
      "crusad": 7388,
      "saprang": 7389,
      "caval": 7390,
      "protagonist": 7391,
      "initiative": 7392,
      "resources": 7393,
      "franchise": 7394,
      "prohib": 7395,
      "06": 7396,
      "93": 7397,
      "bce": 7398,
      "cater": 7399,
      "craft": 7400,
      "hi": 7401,
      "kin": 7402,
      "pure": 7403,
      "wings": 7404,
      "##rates": 7405,
      "##wen": 7406,
      "##tw": 7407,
      "##pe": 7408,
      "ina": 7409,
      "##icts": 7410,
      "##uses": 7411,
      "heat": 7412,
      "shif": 7413,
      "shakes": 7414,
      "##odies": 7415,
      "proport": 7416,
      "dean": 7417,
      "##ables": 7418,
      "##eare": 7419,
      "reconna": 7420,
      "ages": 7421,
      "partly": 7422,
      "meets": 7423,
      "preced": 7424,
      "intercept": 7425,
      "accused": 7426,
      "embar": 7427,
      "winner": 7428,
      "starling": 7429,
      "armour": 7430,
      "1983": 7431,
      "medal": 7432,
      "collabor": 7433,
      "trials": 7434,
      "easily": 7435,
      "1920": 7436,
      "lawton": 7437,
      "debate": 7438,
      "cycle": 7439,
      "##whel": 7440,
      "##encies": 7441,
      "looked": 7442,
      "indicated": 7443,
      "practices": 7444,
      "camera": 7445,
      "richardson": 7446,
      "##ometric": 7447,
      "hunting": 7448,
      "jean": 7449,
      "completion": 7450,
      "concerned": 7451,
      "pleasure": 7452,
      "attracted": 7453,
      "owen": 7454,
      "watershed": 7455,
      "cabin": 7456,
      "specimen": 7457,
      "terminus": 7458,
      "doubt": 7459,
      "fixed": 7460,
      "adjacent": 7461,
      "dramatic": 7462,
      "concerts": 7463,
      "jesus": 7464,
      "##bledon": 7465,
      "georgia": 7466,
      "circumst": 7467,
      "wimbledon": 7468,
      "behaviour": 7469,
      "prerog": 7470,
      "reconnaissance": 7471,
      "ax": 7472,
      "boss": 7473,
      "hat": 7474,
      "jag": 7475,
      "ky": 7476,
      "mant": 7477,
      "pink": 7478,
      "rated": 7479,
      "ward": 7480,
      "##how": 7481,
      "##zen": 7482,
      "##organ": 7483,
      "##imate": 7484,
      "shots": 7485,
      "##umin": 7486,
      "prol": 7487,
      "##allow": 7488,
      "##ishing": 7489,
      "spaces": 7490,
      "##oking": 7491,
      "aggress": 7492,
      "pool": 7493,
      "parks": 7494,
      "recordings": 7495,
      "understand": 7496,
      "ministry": 7497,
      "artific": 7498,
      "162": 7499,
      "metall": 7500,
      "##ahl": 7501,
      "persp": 7502,
      "destruction": 7503,
      "patron": 7504,
      "moral": 7505,
      "effectively": 7506,
      "influences": 7507,
      "falling": 7508,
      "verte": 7509,
      "settled": 7510,
      "composer": 7511,
      "queens": 7512,
      "reduce": 7513,
      "cambridge": 7514,
      "traveled": 7515,
      "exhaust": 7516,
      "emerg": 7517,
      "publishing": 7518,
      "purchase": 7519,
      "rhythm": 7520,
      "diamond": 7521,
      "somalia": 7522,
      "doctor": 7523,
      "sculpture": 7524,
      "congreg": 7525,
      "incorporated": 7526,
      "korean": 7527,
      "remnants": 7528,
      "download": 7529,
      "05": 7530,
      "58": 7531,
      "ak": 7532,
      "ace": 7533,
      "bert": 7534,
      "cant": 7535,
      "hob": 7536,
      "kombat": 7537,
      "nom": 7538,
      "sb": 7539,
      "##yard": 7540,
      "##bie": 7541,
      "##cia": 7542,
      "##hu": 7543,
      "##vis": 7544,
      "##itated": 7545,
      "##emet": 7546,
      "aniston": 7547,
      "##opl": 7548,
      "##ifer": 7549,
      "recalled": 7550,
      "grace": 7551,
      "afterwards": 7552,
      "displ": 7553,
      "impl": 7554,
      "overwhel": 7555,
      "parish": 7556,
      "accomm": 7557,
      "somewh": 7558,
      "mayor": 7559,
      "##aware": 7560,
      "driving": 7561,
      "obtained": 7562,
      "operating": 7563,
      "lob": 7564,
      "advis": 7565,
      "attacking": 7566,
      "storms": 7567,
      "aviation": 7568,
      "1910": 7569,
      "restoration": 7570,
      "eleven": 7571,
      "keamy": 7572,
      "solar": 7573,
      "##attered": 7574,
      "victims": 7575,
      "stands": 7576,
      "1909": 7577,
      "merch": 7578,
      "selection": 7579,
      "meetings": 7580,
      "holiday": 7581,
      "pitcher": 7582,
      "funds": 7583,
      "measures": 7584,
      "##going": 7585,
      "garcia": 7586,
      "painted": 7587,
      "seemed": 7588,
      "absol": 7589,
      "essential": 7590,
      "recovered": 7591,
      "controversial": 7592,
      "architecture": 7593,
      "behavior": 7594,
      "bridges": 7595,
      "puppet": 7596,
      "pupils": 7597,
      "context": 7598,
      "accommod": 7599,
      "somewhat": 7600,
      "08": 7601,
      "cave": 7602,
      "cake": 7603,
      "ira": 7604,
      "matt": 7605,
      "oak": 7606,
      "pier": 7607,
      "rag": 7608,
      "tone": 7609,
      "##oom": 7610,
      "##hm": 7611,
      "##arth": 7612,
      "##icate": 7613,
      "##real": 7614,
      "##thosaurus": 7615,
      "##idae": 7616,
      "islam": 7617,
      "fraser": 7618,
      "unp": 7619,
      "spend": 7620,
      "##achus": 7621,
      "abd": 7622,
      "manus": 7623,
      "flower": 7624,
      "interaction": 7625,
      "param": 7626,
      "consc": 7627,
      "preserved": 7628,
      "poland": 7629,
      "generals": 7630,
      "divor": 7631,
      "origins": 7632,
      "##annah": 7633,
      "directors": 7634,
      "johnston": 7635,
      "barr": 7636,
      "germans": 7637,
      "##eera": 7638,
      "1931": 7639,
      "1935": 7640,
      "1912": 7641,
      "convin": 7642,
      "lowest": 7643,
      "representing": 7644,
      "destroyer": 7645,
      "praise": 7646,
      "circulation": 7647,
      "researchers": 7648,
      "rebels": 7649,
      "hosted": 7650,
      "escort": 7651,
      "normally": 7652,
      "panel": 7653,
      "linked": 7654,
      "arabic": 7655,
      "opposite": 7656,
      "throwing": 7657,
      "cancer": 7658,
      "distinguished": 7659,
      "passengers": 7660,
      "elizabeth": 7661,
      "plunketts": 7662,
      "corythosaurus": 7663,
      "goddess": 7664,
      "crisis": 7665,
      "shakesp": 7666,
      "68": 7667,
      "bone": 7668,
      "bapt": 7669,
      "covers": 7670,
      "dc": 7671,
      "fate": 7672,
      "fia": 7673,
      "fold": 7674,
      "gib": 7675,
      "icon": 7676,
      "pad": 7677,
      "sab": 7678,
      "tong": 7679,
      "tailed": 7680,
      "ust": 7681,
      "wine": 7682,
      "##rus": 7683,
      "##right": 7684,
      "##uz": 7685,
      "##cement": 7686,
      "thro": 7687,
      "##atures": 7688,
      "##olay": 7689,
      "##ira": 7690,
      "##otic": 7691,
      "answ": 7692,
      "sees": 7693,
      "enth": 7694,
      "recur": 7695,
      "clock": 7696,
      "income": 7697,
      "disaster": 7698,
      "carp": 7699,
      "interpret": 7700,
      "forming": 7701,
      "##ribed": 7702,
      "monuments": 7703,
      "defences": 7704,
      "defended": 7705,
      "willing": 7706,
      "helmet": 7707,
      "expensive": 7708,
      "returns": 7709,
      "##tendo": 7710,
      "1932": 7711,
      "waterfall": 7712,
      "trading": 7713,
      "propag": 7714,
      "crosses": 7715,
      "palmy": 7716,
      "covering": 7717,
      "programme": 7718,
      "equipped": 7719,
      "limit": 7720,
      "audio": 7721,
      "difficulties": 7722,
      "satur": 7723,
      "stayed": 7724,
      "judge": 7725,
      "responsibility": 7726,
      "princess": 7727,
      "nintendo": 7728,
      "junior": 7729,
      "carrying": 7730,
      "mobile": 7731,
      "elsewhere": 7732,
      "vessel": 7733,
      "sisters": 7734,
      "stanley": 7735,
      "marlborough": 7736,
      "infrast": 7737,
      "archbishop": 7738,
      "hockey": 7739,
      "inaug": 7740,
      "prerogative": 7741,
      "artificial": 7742,
      "shakespeare": 7743,
      "az": 7744,
      "bang": 7745,
      "cull": 7746,
      "cemet": 7747,
      "eric": 7748,
      "hay": 7749,
      "ken": 7750,
      "lith": 7751,
      "voted": 7752,
      "wag": 7753,
      "##rating": 7754,
      "##ware": 7755,
      "##ugh": 7756,
      "##burn": 7757,
      "##put": 7758,
      "##xts": 7759,
      "##onica": 7760,
      "integr": 7761,
      "##icide": 7762,
      "##reh": 7763,
      "##ithic": 7764,
      "alter": 7765,
      "comments": 7766,
      "##ishment": 7767,
      "spur": 7768,
      "fei": 7769,
      "agree": 7770,
      "otherwise": 7771,
      "canter": 7772,
      "##amps": 7773,
      "ell": 7774,
      "elabor": 7775,
      "supporters": 7776,
      "stead": 7777,
      "occasions": 7778,
      "confeder": 7779,
      "geoff": 7780,
      "arrested": 7781,
      "glad": 7782,
      "1911": 7783,
      "universal": 7784,
      "internet": 7785,
      "switch": 7786,
      "promote": 7787,
      "villages": 7788,
      "1929": 7789,
      "1921": 7790,
      "patri": 7791,
      "patrick": 7792,
      "lawrence": 7793,
      "##scop": 7794,
      "defeating": 7795,
      "horiz": 7796,
      "burning": 7797,
      "tribut": 7798,
      "catech": 7799,
      "ambass": 7800,
      "bombard": 7801,
      "thousand": 7802,
      "legislation": 7803,
      "pushed": 7804,
      "environmental": 7805,
      "beautiful": 7806,
      "survivors": 7807,
      "elder": 7808,
      "citizens": 7809,
      "netherlands": 7810,
      "diplom": 7811,
      "fernand": 7812,
      "impossible": 7813,
      "manuscript": 7814,
      "bore": 7815,
      "citing": 7816,
      "dens": 7817,
      "gates": 7818,
      "holl": 7819,
      "nad": 7820,
      "pin": 7821,
      "pig": 7822,
      "rib": 7823,
      "tight": 7824,
      "tale": 7825,
      "##rich": 7826,
      "theor": 7827,
      "##eries": 7828,
      "##arm": 7829,
      "##ician": 7830,
      "##acle": 7831,
      "##etime": 7832,
      "##uting": 7833,
      "chron": 7834,
      "##ifies": 7835,
      "##oceratops": 7836,
      "##oster": 7837,
      "abund": 7838,
      "amino": 7839,
      "margin": 7840,
      "charity": 7841,
      "acclaim": 7842,
      "underst": 7843,
      "understanding": 7844,
      "retained": 7845,
      "surpr": 7846,
      "161": 7847,
      "crush": 7848,
      "1962": 7849,
      "mediter": 7850,
      "1959": 7851,
      "raj": 7852,
      "raff": 7853,
      "raise": 7854,
      "1938": 7855,
      "streak": 7856,
      "periods": 7857,
      "##quez": 7858,
      "equivalent": 7859,
      "involving": 7860,
      "voiced": 7861,
      "atlanta": 7862,
      "tribute": 7863,
      "closer": 7864,
      "observatory": 7865,
      "objects": 7866,
      "intensified": 7867,
      "products": 7868,
      "pitman": 7869,
      "accompany": 7870,
      "disappo": 7871,
      "garden": 7872,
      "##heim": 7873,
      "doctr": 7874,
      "sleep": 7875,
      "vessels": 7876,
      "cryst": 7877,
      "batsman": 7878,
      "##iques": 7879,
      "cambodia": 7880,
      "preferred": 7881,
      "unsuccessful": 7882,
      "resistance": 7883,
      "criminal": 7884,
      "stefani": 7885,
      "cemetery": 7886,
      "67": 7887,
      "86": 7888,
      "cbs": 7889,
      "dor": 7890,
      "gent": 7891,
      "gust": 7892,
      "hou": 7893,
      "nur": 7894,
      "nurs": 7895,
      "rect": 7896,
      "sic": 7897,
      "u2": 7898,
      "va": 7899,
      "wet": 7900,
      "##rator": 7901,
      "##uv": 7902,
      "##fare": 7903,
      "##erry": 7904,
      "stable": 7905,
      "##iform": 7906,
      "##aboration": 7907,
      "notably": 7908,
      "twin": 7909,
      "committed": 7910,
      "appropri": 7911,
      "formal": 7912,
      "reveals": 7913,
      "subspec": 7914,
      "phr": 7915,
      "slide": 7916,
      "helic": 7917,
      "collaps": 7918,
      "collaboration": 7919,
      "raf": 7920,
      "furt": 7921,
      "myst": 7922,
      "latex": 7923,
      "convection": 7924,
      "temples": 7925,
      "1920s": 7926,
      "causes": 7927,
      "criticised": 7928,
      "needs": 7929,
      "fallen": 7930,
      "doesn": 7931,
      "narrative": 7932,
      "antiqu": 7933,
      "housing": 7934,
      "absence": 7935,
      "caes": 7936,
      "visitors": 7937,
      "moments": 7938,
      "aerith": 7939,
      "saved": 7940,
      "##rupted": 7941,
      "sharp": 7942,
      "laboratory": 7943,
      "apparently": 7944,
      "spiritual": 7945,
      "overseas": 7946,
      "proposal": 7947,
      "deployed": 7948,
      "palestine": 7949,
      "democratic": 7950,
      "biographer": 7951,
      "dialogue": 7952,
      "phillies": 7953,
      "canterbury": 7954,
      "catechism": 7955,
      "mediterranean": 7956,
      "subspecies": 7957,
      "09": 7958,
      "dele": 7959,
      "hok": 7960,
      "hull": 7961,
      "kann": 7962,
      "sale": 7963,
      "saves": 7964,
      "##dy": 7965,
      "##rabb": 7966,
      "##boy": 7967,
      "##coming": 7968,
      "##graf": 7969,
      "##math": 7970,
      "##vn": 7971,
      "##vada": 7972,
      "##vements": 7973,
      "##inje": 7974,
      "toll": 7975,
      "##illy": 7976,
      "##lete": 7977,
      "forb": 7978,
      "##igation": 7979,
      "ready": 7980,
      "shipping": 7981,
      "deem": 7982,
      "degr": 7983,
      "##apers": 7984,
      "##illed": 7985,
      "##ocy": 7986,
      "trick": 7987,
      "recon": 7988,
      "manga": 7989,
      "intense": 7990,
      "usd": 7991,
      "canyon": 7992,
      "formally": 7993,
      "warning": 7994,
      "followers": 7995,
      "musician": 7996,
      "loan": 7997,
      "expand": 7998,
      "modified": 7999,
      "considers": 8000,
      "extension": 8001,
      "restrict": 8002,
      "skull": 8003,
      "refers": 8004,
      "markgraf": 8005,
      "posted": 8006,
      "suggesting": 8007,
      "represents": 8008,
      "jackrabb": 8009,
      "representative": 8010,
      "stationed": 8011,
      "inher": 8012,
      "republican": 8013,
      "platoon": 8014,
      "corner": 8015,
      "productions": 8016,
      "krak": 8017,
      "colorado": 8018,
      "journalist": 8019,
      "imagine": 8020,
      "drums": 8021,
      "dawn": 8022,
      "nickn": 8023,
      "trouble": 8024,
      "grammy": 8025,
      "##otype": 8026,
      "##onomy": 8027,
      "submarine": 8028,
      "exposure": 8029,
      "mamm": 8030,
      "bureau": 8031,
      "anekant": 8032,
      "raffles": 8033,
      "helicop": 8034,
      "furtado": 8035,
      "bou": 8036,
      "baker": 8037,
      "cec": 8038,
      "lose": 8039,
      "mud": 8040,
      "nic": 8041,
      "nhl": 8042,
      "tam": 8043,
      "yo": 8044,
      "##lec": 8045,
      "##cements": 8046,
      "##vati": 8047,
      "##esco": 8048,
      "andre": 8049,
      "##ili": 8050,
      "##lets": 8051,
      "##etts": 8052,
      "forg": 8053,
      "##chang": 8054,
      "sholay": 8055,
      "##agas": 8056,
      "seas": 8057,
      "##abled": 8058,
      "##udes": 8059,
      "##iped": 8060,
      "aftermath": 8061,
      "resign": 8062,
      "actual": 8063,
      "remember": 8064,
      "thereaf": 8065,
      "engines": 8066,
      "cape": 8067,
      "166": 8068,
      "obst": 8069,
      "disturb": 8070,
      "depending": 8071,
      "barker": 8072,
      "annually": 8073,
      "persu": 8074,
      "reprodu": 8075,
      "extent": 8076,
      "140": 8077,
      "valky": 8078,
      "communications": 8079,
      "sugar": 8080,
      "ordin": 8081,
      "grounds": 8082,
      "networks": 8083,
      "predators": 8084,
      "innov": 8085,
      "informed": 8086,
      "dominican": 8087,
      "materials": 8088,
      "poorly": 8089,
      "happened": 8090,
      "ranges": 8091,
      "displays": 8092,
      "aware": 8093,
      "ensure": 8094,
      "recovery": 8095,
      "sacred": 8096,
      "purposes": 8097,
      "muscaria": 8098,
      "vehicle": 8099,
      "orbit": 8100,
      "reservoir": 8101,
      "ille": 8102,
      "cotton": 8103,
      "saturday": 8104,
      "deleg": 8105,
      "thereafter": 8106,
      "jenn": 8107,
      "kim": 8108,
      "liv": 8109,
      "lists": 8110,
      "mail": 8111,
      "pull": 8112,
      "rates": 8113,
      "vel": 8114,
      "##oes": 8115,
      "##life": 8116,
      "##gam": 8117,
      "##hang": 8118,
      "##oma": 8119,
      "##owiec": 8120,
      "##osl": 8121,
      "shear": 8122,
      "##ager": 8123,
      "##apy": 8124,
      "##una": 8125,
      "plane": 8126,
      "##ishn": 8127,
      "##acked": 8128,
      "##iang": 8129,
      "boom": 8130,
      "scar": 8131,
      "ago": 8132,
      "coins": 8133,
      "##ricted": 8134,
      "blow": 8135,
      "teen": 8136,
      "consult": 8137,
      "throne": 8138,
      "writings": 8139,
      "driven": 8140,
      "starlings": 8141,
      "obl": 8142,
      "15th": 8143,
      "1940s": 8144,
      "models": 8145,
      "useful": 8146,
      "maggie": 8147,
      "blacks": 8148,
      "childhood": 8149,
      "entitled": 8150,
      "easy": 8151,
      "supern": 8152,
      "radiation": 8153,
      "richmond": 8154,
      "situated": 8155,
      "representatives": 8156,
      "influential": 8157,
      "factors": 8158,
      "fifa": 8159,
      "readers": 8160,
      "salv": 8161,
      "strip": 8162,
      "honour": 8163,
      "talking": 8164,
      "mexican": 8165,
      "camer": 8166,
      "watching": 8167,
      "injuries": 8168,
      "layer": 8169,
      "withdrew": 8170,
      "israeli": 8171,
      "publisher": 8172,
      "opportunities": 8173,
      "excavation": 8174,
      "advertising": 8175,
      "wisni": 8176,
      "nichol": 8177,
      "simultaneously": 8178,
      "infrastructure": 8179,
      "wisniowiec": 8180,
      "02": 8181,
      "78": 8182,
      "900": 8183,
      "benn": 8184,
      "bald": 8185,
      "cass": 8186,
      "jar": 8187,
      "pagan": 8188,
      "ri": 8189,
      "tag": 8190,
      "wel": 8191,
      "##aver": 8192,
      "##eit": 8193,
      "##tav": 8194,
      "##hol": 8195,
      "##mat": 8196,
      "##mont": 8197,
      "##va": 8198,
      "##inian": 8199,
      "##ilst": 8200,
      "##emat": 8201,
      "anime": 8202,
      "analy": 8203,
      "shark": 8204,
      "ark": 8205,
      "spoke": 8206,
      "enfor": 8207,
      "##ogy": 8208,
      "##teenth": 8209,
      "ammun": 8210,
      "roth": 8211,
      "commem": 8212,
      "partially": 8213,
      "brick": 8214,
      "pret": 8215,
      "interests": 8216,
      "norway": 8217,
      "deck": 8218,
      "parvati": 8219,
      "##ugosl": 8220,
      "movements": 8221,
      "driver": 8222,
      "severely": 8223,
      "generated": 8224,
      "101": 8225,
      "123": 8226,
      "originated": 8227,
      "installed": 8228,
      "operate": 8229,
      "155": 8230,
      "113": 8231,
      "passion": 8232,
      "harm": 8233,
      "deliver": 8234,
      "personality": 8235,
      "victories": 8236,
      "moore": 8237,
      "1928": 8238,
      "historically": 8239,
      "funer": 8240,
      "massachus": 8241,
      "burned": 8242,
      "excess": 8243,
      "turb": 8244,
      "fundament": 8245,
      "sequences": 8246,
      "##itzer": 8247,
      "properties": 8248,
      "athletics": 8249,
      "robin": 8250,
      "portugal": 8251,
      "adventures": 8252,
      "instruments": 8253,
      "struggle": 8254,
      "bulls": 8255,
      "wrestling": 8256,
      "jacob": 8257,
      "plateau": 8258,
      "substantial": 8259,
      "circumstances": 8260,
      "anekantavada": 8261,
      "ammunition": 8262,
      "massachusetts": 8263,
      "84": 8264,
      "92": 8265,
      "cov": 8266,
      "esh": 8267,
      "fert": 8268,
      "gary": 8269,
      "gwen": 8270,
      "hamp": 8271,
      "lud": 8272,
      "osc": 8273,
      "rav": 8274,
      "rising": 8275,
      "sans": 8276,
      "tast": 8277,
      "tide": 8278,
      "vast": 8279,
      "yugosl": 8280,
      "##oh": 8281,
      "##western": 8282,
      "##kes": 8283,
      "##onic": 8284,
      "##aled": 8285,
      "##ilation": 8286,
      "##lying": 8287,
      "whilst": 8288,
      "##owa": 8289,
      "fred": 8290,
      "frig": 8291,
      "frust": 8292,
      "shells": 8293,
      "##aku": 8294,
      "price": 8295,
      "spores": 8296,
      "recip": 8297,
      "twins": 8298,
      "contest": 8299,
      "intr": 8300,
      "relie": 8301,
      "agents": 8302,
      "carved": 8303,
      "weigh": 8304,
      "poison": 8305,
      "remark": 8306,
      "sole": 8307,
      "surg": 8308,
      "miller": 8309,
      "metropol": 8310,
      "##ucing": 8311,
      "##yll": 8312,
      "anyone": 8313,
      "raaf": 8314,
      "listing": 8315,
      "1927": 8316,
      "amongst": 8317,
      "hurricanes": 8318,
      "everyone": 8319,
      "casting": 8320,
      "survive": 8321,
      "looks": 8322,
      "mixture": 8323,
      "predomin": 8324,
      "departure": 8325,
      "khand": 8326,
      "biggest": 8327,
      "wilson": 8328,
      "garrison": 8329,
      "establishing": 8330,
      "thinking": 8331,
      "loud": 8332,
      "eaton": 8333,
      "swedish": 8334,
      "affairs": 8335,
      "acknowled": 8336,
      "emergency": 8337,
      "ustase": 8338,
      "kannada": 8339,
      "celt": 8340,
      "caves": 8341,
      "gill": 8342,
      "jr": 8343,
      "kam": 8344,
      "mack": 8345,
      "mental": 8346,
      "pag": 8347,
      "tiss": 8348,
      "wives": 8349,
      "zoo": 8350,
      "##uge": 8351,
      "##bal": 8352,
      "##greg": 8353,
      "##piece": 8354,
      "##inery": 8355,
      "##ares": 8356,
      "##oux": 8357,
      "##state": 8358,
      "wasn": 8359,
      "forty": 8360,
      "bearing": 8361,
      "##agement": 8362,
      "herald": 8363,
      "residence": 8364,
      "resigned": 8365,
      "marry": 8366,
      "marquez": 8367,
      "playoff": 8368,
      "cars": 8369,
      "overl": 8370,
      "##kend": 8371,
      "##weight": 8372,
      "blues": 8373,
      "paraly": 8374,
      "consp": 8375,
      "howe": 8376,
      "divers": 8377,
      "armored": 8378,
      "instance": 8379,
      "ports": 8380,
      "178": 8381,
      "downtown": 8382,
      "loose": 8383,
      "westward": 8384,
      "offices": 8385,
      "##onto": 8386,
      "midge": 8387,
      "classification": 8388,
      "1933": 8389,
      "restored": 8390,
      "harsh": 8391,
      "trek": 8392,
      "trend": 8393,
      "formerly": 8394,
      "compete": 8395,
      "##encing": 8396,
      "sung": 8397,
      "techniques": 8398,
      "fifteen": 8399,
      "burial": 8400,
      "veronica": 8401,
      "select": 8402,
      "creative": 8403,
      "documents": 8404,
      "interesting": 8405,
      "occupation": 8406,
      "boxing": 8407,
      "simpson": 8408,
      "pictures": 8409,
      "experiences": 8410,
      "neighbor": 8411,
      "reinforcements": 8412,
      "tanks": 8413,
      "premiered": 8414,
      "delayed": 8415,
      "gilbert": 8416,
      "terrorist": 8417,
      "corporation": 8418,
      "stewart": 8419,
      "phoenix": 8420,
      "##friend": 8421,
      "yanke": 8422,
      "wicca": 8423,
      "khandoba": 8424,
      "cow": 8425,
      "code": 8426,
      "dak": 8427,
      "denn": 8428,
      "josh": 8429,
      "mall": 8430,
      "mood": 8431,
      "mys": 8432,
      "mcl": 8433,
      "rig": 8434,
      "ride": 8435,
      "##lie": 8436,
      "##uable": 8437,
      "##gro": 8438,
      "##mate": 8439,
      "##ori": 8440,
      "##isters": 8441,
      "##the": 8442,
      "##roit": 8443,
      "wasp": 8444,
      "forcing": 8445,
      "reh": 8446,
      "##ulating": 8447,
      "prove": 8448,
      "succ": 8449,
      "##apse": 8450,
      "plus": 8451,
      "trained": 8452,
      "complic": 8453,
      "resolution": 8454,
      "prep": 8455,
      "attrib": 8456,
      "format": 8457,
      "peach": 8458,
      "##ologies": 8459,
      "drain": 8460,
      "surge": 8461,
      "supplement": 8462,
      "founder": 8463,
      "smooth": 8464,
      "165": 8465,
      "##yline": 8466,
      "continental": 8467,
      "designs": 8468,
      "##ontin": 8469,
      "weekend": 8470,
      "1957": 8471,
      "detroit": 8472,
      "harmon": 8473,
      "universe": 8474,
      "skills": 8475,
      "differences": 8476,
      "frelim": 8477,
      "federation": 8478,
      "21st": 8479,
      "sounds": 8480,
      "toronto": 8481,
      "scientists": 8482,
      "audiences": 8483,
      "wright": 8484,
      "recognised": 8485,
      "costs": 8486,
      "measured": 8487,
      "achieve": 8488,
      "inhg": 8489,
      "clearly": 8490,
      "martial": 8491,
      "preparation": 8492,
      "weapon": 8493,
      "illustrated": 8494,
      "application": 8495,
      "minimum": 8496,
      "jurchen": 8497,
      "imprison": 8498,
      "moderate": 8499,
      "mulder": 8500,
      "retirement": 8501,
      "hudson": 8502,
      "mozambique": 8503,
      "proportion": 8504,
      "wisniowiecki": 8505,
      "frelimo": 8506,
      "bones": 8507,
      "foss": 8508,
      "fasc": 8509,
      "kansas": 8510,
      "mbar": 8511,
      "ns": 8512,
      "pf": 8513,
      "pec": 8514,
      "sant": 8515,
      "tack": 8516,
      "ww": 8517,
      "wonder": 8518,
      "zomb": 8519,
      "##rat": 8520,
      "##ses": 8521,
      "##tles": 8522,
      "##bn": 8523,
      "##cer": 8524,
      "##mus": 8525,
      "##vant": 8526,
      "thor": 8527,
      "##onia": 8528,
      "##rees": 8529,
      "##oli": 8530,
      "##olen": 8531,
      "enh": 8532,
      "clin": 8533,
      "scully": 8534,
      "commons": 8535,
      "usage": 8536,
      "coff": 8537,
      "jobs": 8538,
      "engage": 8539,
      "symp": 8540,
      "defending": 8541,
      "scheme": 8542,
      "starred": 8543,
      "crops": 8544,
      "battlec": 8545,
      "artwork": 8546,
      "163": 8547,
      "crake": 8548,
      "depicts": 8549,
      "##elsen": 8550,
      "barry": 8551,
      "##atherine": 8552,
      "variation": 8553,
      "magdal": 8554,
      "characterized": 8555,
      "christoph": 8556,
      "kevin": 8557,
      "temporary": 8558,
      "promised": 8559,
      "presentation": 8560,
      "cleared": 8561,
      "expert": 8562,
      "elections": 8563,
      "sufficient": 8564,
      "condem": 8565,
      "satisf": 8566,
      "archaeologist": 8567,
      "err": 8568,
      "huge": 8569,
      "objective": 8570,
      "ranging": 8571,
      "badly": 8572,
      "russia": 8573,
      "giants": 8574,
      "grown": 8575,
      "revolutionary": 8576,
      "victorian": 8577,
      "draf": 8578,
      "fatal": 8579,
      "excavations": 8580,
      "mechanical": 8581,
      "##criptions": 8582,
      "ethnic": 8583,
      "cubs": 8584,
      "tactics": 8585,
      "philosophy": 8586,
      "coleman": 8587,
      "cinema": 8588,
      "voyage": 8589,
      "remarked": 8590,
      "convinced": 8591,
      "battlecru": 8592,
      "03": 8593,
      "aster": 8594,
      "bun": 8595,
      "bind": 8596,
      "cel": 8597,
      "dave": 8598,
      "gamb": 8599,
      "hub": 8600,
      "kong": 8601,
      "lia": 8602,
      "nu": 8603,
      "pc": 8604,
      "ruth": 8605,
      "vote": 8606,
      "##yce": 8607,
      "##night": 8608,
      "##rants": 8609,
      "##ien": 8610,
      "##inus": 8611,
      "##edy": 8612,
      "##inge": 8613,
      "##asm": 8614,
      "##icity": 8615,
      "##icia": 8616,
      "render": 8617,
      "##char": 8618,
      "isot": 8619,
      "##emies": 8620,
      "chanc": 8621,
      "##aints": 8622,
      "##odr": 8623,
      "##opp": 8624,
      "##unction": 8625,
      "nebr": 8626,
      "##akum": 8627,
      "##ategy": 8628,
      "unre": 8629,
      "spar": 8630,
      "boot": 8631,
      "relation": 8632,
      "fee": 8633,
      "feathers": 8634,
      "partner": 8635,
      "cargo": 8636,
      "interpre": 8637,
      "decides": 8638,
      "texts": 8639,
      "warren": 8640,
      "regiments": 8641,
      "revival": 8642,
      "strategy": 8643,
      "install": 8644,
      "crab": 8645,
      "describe": 8646,
      "persian": 8647,
      "designer": 8648,
      "publications": 8649,
      "corb": 8650,
      "arriving": 8651,
      "restricted": 8652,
      "inscription": 8653,
      "eleph": 8654,
      "valuable": 8655,
      "explo": 8656,
      "communication": 8657,
      "1926": 8658,
      "opponent": 8659,
      "cyt": 8660,
      "claiming": 8661,
      "peters": 8662,
      "hamlet": 8663,
      "factory": 8664,
      "davis": 8665,
      "##efa": 8666,
      "striking": 8667,
      "ranking": 8668,
      "closest": 8669,
      "diagn": 8670,
      "quarterback": 8671,
      "duty": 8672,
      "displayed": 8673,
      "mrs": 8674,
      "frequent": 8675,
      "intellect": 8676,
      "magnetic": 8677,
      "magnitude": 8678,
      "aspect": 8679,
      "graphics": 8680,
      "boundary": 8681,
      "determine": 8682,
      "schedule": 8683,
      "protestant": 8684,
      "alleged": 8685,
      "neutral": 8686,
      "feeding": 8687,
      "dwarf": 8688,
      "impressed": 8689,
      "false": 8690,
      "drug": 8691,
      "benefit": 8692,
      "residential": 8693,
      "predecessor": 8694,
      "styles": 8695,
      "inhabitants": 8696,
      "cavalry": 8697,
      "ambassador": 8698,
      "hokies": 8699,
      "oscar": 8700,
      "01": 8701,
      "dies": 8702,
      "dual": 8703,
      "erected": 8704,
      "hans": 8705,
      "jet": 8706,
      "mes": 8707,
      "mitch": 8708,
      "pic": 8709,
      "sas": 8710,
      "tut": 8711,
      "tenth": 8712,
      "##ao": 8713,
      "##bing": 8714,
      "##gov": 8715,
      "##icit": 8716,
      "##eled": 8717,
      "##ecraft": 8718,
      "##acles": 8719,
      "aside": 8720,
      "##iders": 8721,
      "isbn": 8722,
      "chan": 8723,
      "chagas": 8724,
      "uniform": 8725,
      "##ellar": 8726,
      "clust": 8727,
      "abby": 8728,
      "allen": 8729,
      "amph": 8730,
      "##oko": 8731,
      "roots": 8732,
      "##ignment": 8733,
      "brill": 8734,
      "offs": 8735,
      "coin": 8736,
      "outbreak": 8737,
      "centers": 8738,
      "decay": 8739,
      "attained": 8740,
      "charged": 8741,
      "##graph": 8742,
      "revol": 8743,
      "releases": 8744,
      "belg": 8745,
      "armament": 8746,
      "millenn": 8747,
      "##ertain": 8748,
      "deput": 8749,
      "##aham": 8750,
      "commandment": 8751,
      "considering": 8752,
      "arrive": 8753,
      "refuge": 8754,
      "difference": 8755,
      "possess": 8756,
      "explains": 8757,
      "bands": 8758,
      "highways": 8759,
      "argues": 8760,
      "1905": 8761,
      "turks": 8762,
      "machines": 8763,
      "satell": 8764,
      "ruling": 8765,
      "cruise": 8766,
      "dominant": 8767,
      "malley": 8768,
      "strengthened": 8769,
      "anthem": 8770,
      "batteries": 8771,
      "newspapers": 8772,
      "bulk": 8773,
      "degrees": 8774,
      "waiting": 8775,
      "liberal": 8776,
      "leslie": 8777,
      "mathews": 8778,
      "definition": 8779,
      "jonathan": 8780,
      "premiere": 8781,
      "adaptation": 8782,
      "prompted": 8783,
      "exclusively": 8784,
      "updated": 8785,
      "kelly": 8786,
      "settlements": 8787,
      "pioneer": 8788,
      "perspective": 8789,
      "wagner": 8790,
      "deemed": 8791,
      "valkyria": 8792,
      "paralymp": 8793,
      "bom": 8794,
      "banned": 8795,
      "fib": 8796,
      "nut": 8797,
      "nash": 8798,
      "uefa": 8799,
      "##iac": 8800,
      "##wer": 8801,
      "##hem": 8802,
      "##ko": 8803,
      "##jan": 8804,
      "infer": 8805,
      "##anth": 8806,
      "##itively": 8807,
      "##ilty": 8808,
      "##urer": 8809,
      "##roph": 8810,
      "stu": 8811,
      "##olithic": 8812,
      "rend": 8813,
      "shield": 8814,
      "comics": 8815,
      "prosp": 8816,
      "suicide": 8817,
      "deity": 8818,
      "##aki": 8819,
      "export": 8820,
      "exists": 8821,
      "##arte": 8822,
      "herze": 8823,
      "clark": 8824,
      "scattered": 8825,
      "amid": 8826,
      "amaz": 8827,
      "resumed": 8828,
      "carn": 8829,
      "impression": 8830,
      "brain": 8831,
      "coinc": 8832,
      "upset": 8833,
      "earn": 8834,
      "charm": 8835,
      "assess": 8836,
      "assisted": 8837,
      "northward": 8838,
      "northeastern": 8839,
      "artistic": 8840,
      "obv": 8841,
      "metre": 8842,
      "##ucks": 8843,
      "landings": 8844,
      "##rows": 8845,
      "expect": 8846,
      "exposed": 8847,
      "magadh": 8848,
      "inscriptions": 8849,
      "deliber": 8850,
      "handled": 8851,
      "##box": 8852,
      "furthermore": 8853,
      "tourist": 8854,
      "profile": 8855,
      "seek": 8856,
      "jackets": 8857,
      "heroes": 8858,
      "structural": 8859,
      "fifty": 8860,
      "talent": 8861,
      "crews": 8862,
      "testing": 8863,
      "injured": 8864,
      "amounts": 8865,
      "cheval": 8866,
      "celebrated": 8867,
      "investigation": 8868,
      "chronicles": 8869,
      "globe": 8870,
      "distinctive": 8871,
      "defenders": 8872,
      "kurt": 8873,
      "disappeared": 8874,
      "brooks": 8875,
      "##borne": 8876,
      "##burgh": 8877,
      "bertin": 8878,
      "iraq": 8879,
      "nurse": 8880,
      "commemor": 8881,
      "celtic": 8882,
      "nebraska": 8883,
      "##govina": 8884,
      "magadheera": 8885,
      "cod": 8886,
      "cous": 8887,
      "cash": 8888,
      "dd": 8889,
      "dict": 8890,
      "eg": 8891,
      "haz": 8892,
      "lies": 8893,
      "laugh": 8894,
      "pyr": 8895,
      "soph": 8896,
      "wander": 8897,
      "zinc": 8898,
      "##rad": 8899,
      "##wa": 8900,
      "##eb": 8901,
      "##mouth": 8902,
      "##atically": 8903,
      "##icial": 8904,
      "##reet": 8905,
      "##omtav": 8906,
      "##urally": 8907,
      "##adier": 8908,
      "stores": 8909,
      "forth": 8910,
      "##olia": 8911,
      "asomtav": 8912,
      "anch": 8913,
      "chain": 8914,
      "sure": 8915,
      "pryce": 8916,
      "spac": 8917,
      "enters": 8918,
      "abol": 8919,
      "##okovic": 8920,
      "disband": 8921,
      "carre": 8922,
      "carmel": 8923,
      "sheff": 8924,
      "coordin": 8925,
      "pref": 8926,
      "prefect": 8927,
      "paran": 8928,
      "peaking": 8929,
      "emmy": 8930,
      "quant": 8931,
      "southeastern": 8932,
      "guilty": 8933,
      "##endar": 8934,
      "##inton": 8935,
      "117": 8936,
      "runners": 8937,
      "ideal": 8938,
      "triang": 8939,
      "demands": 8940,
      "harold": 8941,
      "swim": 8942,
      "organisation": 8943,
      "approval": 8944,
      "tempor": 8945,
      "basement": 8946,
      "1924": 8947,
      "1925": 8948,
      "referring": 8949,
      "sunk": 8950,
      "tooth": 8951,
      "trophy": 8952,
      "turrets": 8953,
      "circle": 8954,
      "circuit": 8955,
      "1890": 8956,
      "magazines": 8957,
      "madrid": 8958,
      "memor": 8959,
      "rebell": 8960,
      "keys": 8961,
      "murray": 8962,
      "violent": 8963,
      "uncertain": 8964,
      "matth": 8965,
      "prevented": 8966,
      "djokovic": 8967,
      "tournaments": 8968,
      "demonstrated": 8969,
      "delivery": 8970,
      "pursue": 8971,
      "executed": 8972,
      "alfred": 8973,
      "assassination": 8974,
      "nielsen": 8975,
      "substitute": 8976,
      "meteorological": 8977,
      "houston": 8978,
      "yankees": 8979,
      "herzegovina": 8980,
      "asomtavruli": 8981,
      "bible": 8982,
      "dat": 8983,
      "fulf": 8984,
      "gets": 8985,
      "jen": 8986,
      "jur": 8987,
      "lor": 8988,
      "por": 8989,
      "ump": 8990,
      "wik": 8991,
      "##noon": 8992,
      "##rh": 8993,
      "##went": 8994,
      "##gars": 8995,
      "##vised": 8996,
      "##inations": 8997,
      "##esi": 8998,
      "tox": 8999,
      "##adi": 9000,
      "sting": 9001,
      "stood": 9002,
      "##iri": 9003,
      "##ivated": 9004,
      "altered": 9005,
      "congo": 9006,
      "chen": 9007,
      "chest": 9008,
      "##essee": 9009,
      "expression": 9010,
      "##sex": 9011,
      "##arya": 9012,
      "scand": 9013,
      "gran": 9014,
      "afternoon": 9015,
      "feels": 9016,
      "disagre": 9017,
      "evolution": 9018,
      "brack": 9019,
      "weir": 9020,
      "canon": 9021,
      "##osex": 9022,
      "noble": 9023,
      "genetic": 9024,
      "liked": 9025,
      "buy": 9026,
      "acre": 9027,
      "acute": 9028,
      "phen": 9029,
      "string": 9030,
      "##atched": 9031,
      "##ieties": 9032,
      "conclusion": 9033,
      "170": 9034,
      "runway": 9035,
      "edges": 9036,
      "sixteen": 9037,
      "helium": 9038,
      "commandos": 9039,
      "conflic": 9040,
      "1934": 9041,
      "sket": 9042,
      "soci": 9043,
      "valve": 9044,
      "initiated": 9045,
      "anglo": 9046,
      "philip": 9047,
      "berlin": 9048,
      "innoc": 9049,
      "madison": 9050,
      "territorial": 9051,
      "jews": 9052,
      "hostile": 9053,
      "indicating": 9054,
      "employees": 9055,
      "melody": 9056,
      "ninet": 9057,
      "subjects": 9058,
      "tennessee": 9059,
      "adopt": 9060,
      "translation": 9061,
      "succeed": 9062,
      "suspended": 9063,
      "hawaii": 9064,
      "recommend": 9065,
      "advertis": 9066,
      "pounds": 9067,
      "typh": 9068,
      "cosm": 9069,
      "warrior": 9070,
      "carpent": 9071,
      "eshmun": 9072,
      "bib": 9073,
      "dud": 9074,
      "gap": 9075,
      "gosp": 9076,
      "gift": 9077,
      "kon": 9078,
      "lis": 9079,
      "lumber": 9080,
      "mit": 9081,
      "ndh": 9082,
      "omar": 9083,
      "oreg": 9084,
      "sult": 9085,
      "tip": 9086,
      "yield": 9087,
      "##nie": 9088,
      "##rom": 9089,
      "##wick": 9090,
      "##bel": 9091,
      "##gers": 9092,
      "##kon": 9093,
      "##inth": 9094,
      "##nda": 9095,
      "toured": 9096,
      "##urst": 9097,
      "ontar": 9098,
      "stav": 9099,
      "strict": 9100,
      "##ulu": 9101,
      "##osing": 9102,
      "##estyle": 9103,
      "##agen": 9104,
      "enzy": 9105,
      "##ieth": 9106,
      "##iney": 9107,
      "components": 9108,
      "abc": 9109,
      "scout": 9110,
      "percept": 9111,
      "mariana": 9112,
      "evans": 9113,
      "upr": 9114,
      "##active": 9115,
      "dece": 9116,
      "consol": 9117,
      "underne": 9118,
      "liqu": 9119,
      "##enden": 9120,
      "receives": 9121,
      "125": 9122,
      "cress": 9123,
      "114": 9124,
      "signs": 9125,
      "reducing": 9126,
      "chrom": 9127,
      "##isms": 9128,
      "harbour": 9129,
      "swiss": 9130,
      "valid": 9131,
      "sentiment": 9132,
      "realized": 9133,
      "1000": 9134,
      "requested": 9135,
      "##shore": 9136,
      "ordering": 9137,
      "seeking": 9138,
      "walking": 9139,
      "##itarian": 9140,
      "romanian": 9141,
      "programming": 9142,
      "presidential": 9143,
      "1908": 9144,
      "biological": 9145,
      "reader": 9146,
      "putting": 9147,
      "colleagues": 9148,
      "venues": 9149,
      "respective": 9150,
      "potentially": 9151,
      "theatrical": 9152,
      "certainly": 9153,
      "catal": 9154,
      "renov": 9155,
      "birthday": 9156,
      "benj": 9157,
      "keeping": 9158,
      "conservative": 9159,
      "bidd": 9160,
      "architectural": 9161,
      "sorra": 9162,
      "measurements": 9163,
      "withdrawal": 9164,
      "kirk": 9165,
      "eliminated": 9166,
      "culmin": 9167,
      "orchestra": 9168,
      "rebuilt": 9169,
      "paramount": 9170,
      "pretty": 9171,
      "sympath": 9172,
      "chevaliers": 9173,
      "sheffield": 9174,
      "oregon": 9175,
      "ontario": 9176,
      "underneath": 9177,
      "dust": 9178,
      "hast": 9179,
      "kw": 9180,
      "liz": 9181,
      "lakes": 9182,
      "linc": 9183,
      "mg": 9184,
      "nam": 9185,
      "ost": 9186,
      "riding": 9187,
      "vig": 9188,
      "veter": 9189,
      "##low": 9190,
      "##sis": 9191,
      "##equ": 9192,
      "##father": 9193,
      "##aski": 9194,
      "##star": 9195,
      "##rose": 9196,
      "stere": 9197,
      "asian": 9198,
      "asks": 9199,
      "##vereign": 9200,
      "##odore": 9201,
      "##ardine": 9202,
      "leigh": 9203,
      "tracy": 9204,
      "##rae": 9205,
      "resol": 9206,
      "rook": 9207,
      "uss": 9208,
      "aggreg": 9209,
      "##pled": 9210,
      "brut": 9211,
      "##enses": 9212,
      "outl": 9213,
      "earning": 9214,
      "parody": 9215,
      "##orship": 9216,
      "sovereign": 9217,
      "presby": 9218,
      "operates": 9219,
      "barbar": 9220,
      "##azer": 9221,
      "provinc": 9222,
      "peoples": 9223,
      "anne": 9224,
      "dams": 9225,
      "trium": 9226,
      "christine": 9227,
      "harrison": 9228,
      "visiting": 9229,
      "organised": 9230,
      "stream": 9231,
      "personally": 9232,
      "bases": 9233,
      "kills": 9234,
      "1923": 9235,
      "sentences": 9236,
      "##minster": 9237,
      "shoulder": 9238,
      "nettles": 9239,
      "rhys": 9240,
      "wrapped": 9241,
      "animation": 9242,
      "rounds": 9243,
      "wider": 9244,
      "ernest": 9245,
      "parliamentary": 9246,
      "sympt": 9247,
      "semif": 9248,
      "observation": 9249,
      "fishing": 9250,
      "coaching": 9251,
      "autumn": 9252,
      "removal": 9253,
      "chicks": 9254,
      "cougars": 9255,
      "favorable": 9256,
      "pulaski": 9257,
      "rhyme": 9258,
      "gardner": 9259,
      "hawaiian": 9260,
      "neighb": 9261,
      "sculptures": 9262,
      "comparison": 9263,
      "synthes": 9264,
      "molecules": 9265,
      "vertical": 9266,
      "determin": 9267,
      "partnership": 9268,
      "queensland": 9269,
      "propaganda": 9270,
      "elaborate": 9271,
      "collapsed": 9272,
      "fundamental": 9273,
      "surgery": 9274,
      "dakota": 9275,
      "satellite": 9276,
      "spacecraft": 9277,
      "benjamin": 9278,
      "lincol": 9279,
      "presbyter": 9280,
      "dish": 9281,
      "jason": 9282,
      "lig": 9283,
      "lanes": 9284,
      "pse": 9285,
      "pace": 9286,
      "rick": 9287,
      "sib": 9288,
      "sony": 9289,
      "vand": 9290,
      "##oly": 9291,
      "##rent": 9292,
      "##ij": 9293,
      "##bound": 9294,
      "##cribed": 9295,
      "##hy": 9296,
      "##krit": 9297,
      "##pan": 9298,
      "##atural": 9299,
      "##atropical": 9300,
      "##anita": 9301,
      "toler": 9302,
      "##oust": 9303,
      "##ami": 9304,
      "##acc": 9305,
      "stim": 9306,
      "##etown": 9307,
      "asking": 9308,
      "whit": 9309,
      "conj": 9310,
      "atom": 9311,
      "chase": 9312,
      "shorter": 9313,
      "suitable": 9314,
      "##apore": 9315,
      "platin": 9316,
      "trig": 9317,
      "contribution": 9318,
      "goat": 9319,
      "overlo": 9320,
      "##ensions": 9321,
      "##kshire": 9322,
      "parade": 9323,
      "remove": 9324,
      "mines": 9325,
      "acids": 9326,
      "guid": 9327,
      "guerr": 9328,
      "singapore": 9329,
      "starring": 9330,
      "##ernon": 9331,
      "crest": 9332,
      "signal": 9333,
      "completing": 9334,
      "advancing": 9335,
      "collapse": 9336,
      "14th": 9337,
      "believing": 9338,
      "easter": 9339,
      "youngest": 9340,
      "prix": 9341,
      "profit": 9342,
      "representation": 9343,
      "africaine": 9344,
      "electron": 9345,
      "woodhouse": 9346,
      "voices": 9347,
      "##ships": 9348,
      "inhab": 9349,
      "synag": 9350,
      "wildlife": 9351,
      "bodyline": 9352,
      "dispute": 9353,
      "questions": 9354,
      "drove": 9355,
      "logic": 9356,
      "boundaries": 9357,
      "documented": 9358,
      "translated": 9359,
      "compliment": 9360,
      "borough": 9361,
      "extratropical": 9362,
      "ingres": 9363,
      "korea": 9364,
      "sisler": 9365,
[...]
